/**
  ******************************************************************************
  * @file    gesture_finetuned_data_params.c
  * @author  AST Embedded Analytics Research Platform
  * @date    2026-07-08T17:46:43+0800
  * @brief   AI Tool Automatic Code Generator for Embedded NN computing
  ******************************************************************************
  * Copyright (c) 2026 STMicroelectronics.
  * All rights reserved.
  *
  * This software is licensed under terms that can be found in the LICENSE file
  * in the root directory of this software component.
  * If no LICENSE file comes with this software, it is provided AS-IS.
  ******************************************************************************
  */

#include "gesture_finetuned_data_params.h"


/**  Activations Section  ****************************************************/
ai_handle g_gesture_finetuned_activations_table[1 + 2] = {
  AI_HANDLE_PTR(AI_MAGIC_MARKER),
  AI_HANDLE_PTR(NULL),
  AI_HANDLE_PTR(AI_MAGIC_MARKER),
};




/**  Weights Section  ********************************************************/
AI_ALIGNED(32)
const ai_u64 s_gesture_finetuned_weights_array_u64[13831] = {
  0x3c196b09be187563U, 0xbe0edbf93e14d605U, 0x3e655cda3e71bba4U, 0x3e89435e3c530631U,
  0x3c957d163d511016U, 0xbd2eebd73d582968U, 0x3e19108fbe0b3ed6U, 0xbb9752a13e1657ddU,
  0x3dde51e03e454430U, 0xbddaa4903bfdea46U, 0xbdfe454fbe4f84beU, 0xbe74f1c3be40e631U,
  0xbdfb6cc43d6b75ebU, 0x3e31267f3b822ab9U, 0x3ea970fe3c790a14U, 0x3e7ba6ec3e01cd91U,
  0xbd66f65bbbd293d0U, 0x3d5d6844be540a9fU, 0x3e84ccc33e29f5f0U, 0xbdce2a573eafd01bU,
  0x3e8c30f63e7bf160U, 0x3e45648dbd7e935cU, 0x3e786af23d2fb007U, 0x3e6cebd93e65e6adU,
  0x3e9396fc3deeb4f4U, 0xbce68cc93e19c5edU, 0x3e33f3f13dcf2e07U, 0xbdbd909b3e2d6a23U,
  0x3d4f1a5cbd7a5857U, 0x3d9d84bebd524782U, 0x3da725e53e174873U, 0xbd8dacbe3e8a0ea5U,
  0x3e170ca4be4e16dbU, 0xbdb902ad3dc33669U, 0xbddaea32be1d1541U, 0x3e290c93bd8562a5U,
  0x3e2fe18a3ca373ccU, 0x3e23c5f43b44a622U, 0x3c00fcd2be555798U, 0xbe8f5883be08b9ccU,
  0xbe41d400bddbb9e4U, 0xbe6e972bbe1e60faU, 0x3e448e673e4b10f9U, 0x3e7736a53d920271U,
  0x3e2448d5bd8604c6U, 0xbdd332653da0ed32U, 0x3e1485da3d3e77efU, 0x3e194cc83dc90666U,
  0x3dbf9c88bac21dd4U, 0xbd924631be0a312fU, 0x3dac70bbbe38ac16U, 0xbd965522bde2d339U,
  0x3dfea7b3bd88a32eU, 0xbc85d82bbe114747U, 0xbdaaa7fbbe8ef856U, 0xbe840df13cde4b84U,
  0x3d24de34bd9977c8U, 0xbdb822babe94ceb0U, 0x3de5acb03d70f185U, 0xbc3903f83e9624b9U,
  0x3e1e570a3ddcd5b7U, 0xbe0b4b283dbe18f3U, 0xbd21f0f43e2b9f19U, 0x3e8876fdbe0f8a04U,
  0x3df15cd23e8a4f53U, 0x3e5919753c866129U, 0x3e81f10bbd194893U, 0x3e1b69b03e248991U,
  0xbe1c6cfbbe5ebf2eU, 0xbdd709cd3e5043a9U, 0x3e08fbbb3e1f5f02U, 0x3ddc5404bdc1e4edU,
  0xbe3f1118bc96c1f8U, 0x3e7d4dd43d9d0fd1U, 0xbd642f143e09dc00U, 0xbd303f483e0375afU,
  0x3e2da71ebe172c3fU, 0x3dbe5ff0be6d5b37U, 0xbd7ac7be3e519df2U, 0x3d331f44be4cd6b2U,
  0xbdf120eabde09ca6U, 0x3e144b893e494b43U, 0xbc39aafb3e84d70aU, 0xbc832f413d9fe998U,
  0xbb825ee3bdb0b7feU, 0x3dc2545ebdab672aU, 0x3e83955c3e108b34U, 0x3e78f49b3e877775U,
  0x3e218e803e47b14fU, 0x3d8f42253d102270U, 0x3e615eb13e70e174U, 0x3e441670bdd24f45U,
  0xbdd09e4f3cccb9c7U, 0x3d9a57ffbd749eb2U, 0x3dd3ffe7bd210a8aU, 0xbbe1f33fbe264023U,
  0xbc7e055d3e39fc28U, 0x3dece65e3e0cea25U, 0x3e3e25b13e1d61dbU, 0x3e1500773dfeff52U,
  0x3b876e833c01d3bfU, 0x3e7712783e2a6d7eU, 0x3e340354bd8a007cU, 0x3c4f3811bd189d3eU,
  0xbdd1eba33cffc443U, 0x3e90b4ef3c5e196eU, 0x3e6658643d67758fU, 0xbd4f182c3e886daeU,
  0xbcdc0288be52ecd3U, 0xbe5c47943da62996U, 0xbe11760a3de6d7afU, 0x3c0611763d431db1U,
  0xbe206ceabe09f063U, 0xbd94a1393d42f03dU, 0xbe02c33ebe39eca9U, 0x3e54156b3db0465eU,
  0x3e096be83e6408d3U, 0x3dc8ab0b3df4a516U, 0x3e69a8313dcce52fU, 0x3d0f00623e13ab28U,
  0x3e30c9ef3dd4f144U, 0xbe95dd2c3e4bd95eU, 0x3bad90903d3d1a2dU, 0xbe1e82c4be58a53aU,
  0x3dffd0afbc06c7fdU, 0x3e1d49b73e9040a1U, 0xbdb80d253d1ce4e9U, 0x3e2eaf86be321ab7U,
  0x3d2a3cc93dde26f1U, 0x3ea118c83e2a15c0U, 0xbda79ad63dbf8299U, 0x3dc405e43e187315U,
  0x3dfe90ea3b8efd54U, 0xbe139270bd512852U, 0xbc6d7a993ceb0e37U, 0x3e265e93bd7bcc92U,
  0x3df53ef23e571813U, 0xbc8bb58cbe2dec0bU, 0xbe0b20fe3d341febU, 0x3d22ebb3bd7cd58dU,
  0x3dd08f44bdf6862eU, 0xbdc11ec7bdb9eba4U, 0x3e05e839bde24149U, 0xbe061f1c3dd64cf1U,
  0x3e14870bbd8f039cU, 0x3d9b4f7bbe6d247fU, 0xbde1c0413c952e48U, 0xbca27260bdc9e9cdU,
  0x3e3dba0abe23e0d5U, 0x3e33b5bfbcf865bcU, 0x3dbf787b3e8434acU, 0xbd72df3c3e1653dfU,
  0x3de867e93e466b7eU, 0x3e12623c3e2c9d15U, 0x3e666121bd1fc150U, 0x3d979a93bdffec6bU,
  0xbd2190d73e1f14bcU, 0x3c208c6dbd29a1aeU, 0xbacc4c353d721f80U, 0xbe05dcfb3e0a5594U,
  0x3d9aa418bd5821e9U, 0xbdfd1518bc4647bcU, 0x3e970dd13de327c7U, 0x3e21114b3ed739e3U,
  0x3f00fe9f3edb5576U, 0x3eb0fbc73e06d686U, 0x3e020b8c3e4846d1U, 0x3ec4669a3ebdc8ccU,
  0x3dfcf7183e23832aU, 0x3e1f30f73ed02867U, 0x3dc6076f3e98763bU, 0x3eb077d2bd504909U,
  0xbde4bb753e962c36U, 0x3ea4bade3de944f5U, 0x3d8ae7dcbdc99aacU, 0x3d757e413d2ec711U,
  0x3e77a76ebd7e6d6bU, 0x3dc16724bb66cc3dU, 0x3d9129cd3e1f480eU, 0x3e0cc8763e856dc0U,
  0xbe0e4950bdc97b57U, 0xbd8bd0ba3e1275a6U, 0x3db6bb433e481005U, 0x3e0c042d3e398a29U,
  0x3df845373e63c9b8U, 0xbd30e297be5c5ed0U, 0xbe7a5f22be19b222U, 0xbd69390abc469368U,
  0xbcff68d5be5fa4f8U, 0xbea4590abe6c925aU, 0x3d749e5fbddb2d72U, 0xbe3dd9e7be36753fU,
  0x3e5de271bb8b087eU, 0xbc6f63f03e8dbb68U, 0x3d5f0de0bdeb3fd3U, 0xbe580c43be37b25bU,
  0xbc110ca03d04f98aU, 0x3e2f32d4bd916deeU, 0xbd0ef13c3e723bafU, 0x3e594382bd980f45U,
  0x3e8d1d503d850114U, 0x3e23ed05bd62ec2bU, 0x3dd62b343d2f60f0U, 0xbc119d67bd4af6b0U,
  0x3d8fa771bde3daadU, 0xbd90f4183c26dda4U, 0xbc9152d63db3c9b8U, 0xbb916898bdfd1715U,
  0xbe2a9027bce4cc13U, 0xbe37bc31bdc801f4U, 0xbe17b581bb97c016U, 0x3cd4019fbd86b333U,
  0xbdb587c43e0ef0e4U, 0xbe071ad4bd190b61U, 0xbe1490cf3dcb874cU, 0x3d647e433db6ecceU,
  0xbe5f751d3d3a555dU, 0xbc43c2623d709375U, 0x3d36942cbcb8d5c4U, 0xbe2ba46ebde3698dU,
  0xbdc135c1bd969c23U, 0xbdb95b2e3e0024daU, 0xbd6e26edbe81e7c1U, 0xbd209b313dcabc72U,
  0x3deb72dc3c1f0962U, 0x3d8e44d93da795c0U, 0xbd4c7ebc3e737773U, 0x3e16e5ee3c2eb2e1U,
  0x3df7f993bd100172U, 0x3dae3c06bd5ad79aU, 0x3e1544a53b8f1a9aU, 0xbc920df93e2e42f0U,
  0x3dabdc3ebd2e5450U, 0x3e045cbb3e0ac3a0U, 0xbdc9f6a03e5dfa91U, 0x3dd09e123dce7323U,
  0x3d851a43bc75626bU, 0x3dffd12fbc990f38U, 0x3e36e6583e07231aU, 0xbd1ed3813e0f12c0U,
  0xbbd494d23d8ad472U, 0xbe4b09b0bcd217d4U, 0xbe1527033e743fb2U, 0xbcb205c7bca4393cU,
  0x3cdcaf37bd5796a4U, 0xbdb4738dbd6c35daU, 0x3d0144503d93f94aU, 0xbde2be5c3d82a0b1U,
  0x3de859fb3e1b693cU, 0x3e287531bb8a48fcU, 0xbd927cca3dcc7925U, 0x3e16732ebd8e8db7U,
  0x3d5adcc4bdd46b75U, 0x3de0f213b9c77ea8U, 0x3caedb13bd6fcad8U, 0xbdec5496bce916bcU,
  0xbcef10333e083184U, 0xbde084bf3c80d6c0U, 0xbca730403e1c5895U, 0xbcfc1c19bd1eb3e0U,
  0x3dd5b1dcbd836f6eU, 0x3de978df3d72b6a4U, 0x3d27b0333dd328baU, 0xbdf9ab0ebe5a8357U,
  0x3d281edd3c05c7e4U, 0xbd5abaa6bbafd1bfU, 0xbd10a4173e243ecbU, 0xbc995ac3bd454423U,
  0x3b2e59a7bd2e3ffbU, 0xbd9a1806be48de25U, 0xbd1a73d2bdc9d3b9U, 0xbdfc0f59be322ef8U,
  0xbd9c96433c47859bU, 0xbd0e7582bdc5def4U, 0xbd71084bbd7ac719U, 0x3c7b6c913b95394bU,
  0xbce68b3cbdc5f5aaU, 0x3cb492f73daf9693U, 0x3d1a69e2bd9dac0cU, 0xbba7dfcebc520d73U,
  0x3d21e45abd4cc9eeU, 0xbe0787833d50da28U, 0x3dbd93423ba508a7U, 0xbc33758ebcfa826eU,
  0xbde4b21a3c919189U, 0xbd22b876bc109a7bU, 0xbd8deac9bc84e81eU, 0x3d966acbbd29586dU,
  0x3d8fe3693b082811U, 0xbe5e9e4e3bc7f08dU, 0xbda77aa5bd9f9f46U, 0xbd356ff33c9ee1bdU,
  0xbdef5d5dbd0b8f61U, 0xbd9be596be28ae33U, 0xbde91afabd432b77U, 0xbdee0ccebe53249bU,
  0x3d75cfad3a4e3d5eU, 0x3dcf14a83dc4339bU, 0x3dfbe0993bca21d7U, 0xbd6248933d22cc9fU,
  0xbd90e8c63bd413d6U, 0x3df09efa3da3a1b5U, 0x3dbb6208bda767dfU, 0x3df4a95abe440946U,
  0xbde23e28bbc70abeU, 0xbd9742393e0bddb1U, 0xbdc3472cbe06524dU, 0xbceb1e15be165e51U,
  0xbe6afa85bd1cddb4U, 0xbd2a62293e44ccf6U, 0xbd9629aa3d26587aU, 0x3dc93c26bd4c3239U,
  0xbd240ecebd45291dU, 0x3df55faa3def0e86U, 0x3a903c053d9ddc91U, 0x3db8e999bdd758d0U,
  0xbdf60df33e1d431eU, 0xbd7e0dff3e306a68U, 0x3d4c97e73c303d78U, 0x3d8039cb3deb9301U,
  0xbbeb68453c9dc3abU, 0xbe145ea8be29b4a0U, 0xbdd307ccbddc38deU, 0xbdceee523d8023edU,
  0xbd836c2abde8833dU, 0xbe30bcb6bd8f2225U, 0xbe3d10b5be4355dbU, 0x3df8b8623dea2f25U,
  0xbde84eeabe8f4d85U, 0xbdc2c94abdc45d64U, 0xbcbce41b3e011d25U, 0xbda9f2083c944856U,
  0x3ded7dd93e25554cU, 0xbdad7df23cd731ccU, 0xbe67862ebd9c61acU, 0xbd511a283da29d89U,
  0xbd553a973d6fe139U, 0x3e1fc019bdba1157U, 0x3db8ea2c3e363469U, 0x3dd0147cbd011bd5U,
  0x3d6ed8873dd98ba8U, 0xbdfaf583be05fdf0U, 0xbdf8922abd8ac389U, 0x3d640aaf3dec636eU,
  0x3dca5f20bdc61d23U, 0xbd8494ccbe770f6bU, 0x3def80b03e1d3ec1U, 0xbce5e3f63d0336c9U,
  0x3e1522eb3e0e3210U, 0xbb748f633b89e3e0U, 0xbe2b0cbdbdff0e0eU, 0xbd17712c3ddc1157U,
  0x3e09a54cbdec0a9fU, 0x3df644bd3d0a02a7U, 0x3e18bb703e42ca2eU, 0x3e0a486cbb7ef02bU,
  0x3d7ee0e13e32aa69U, 0x3e0e60913cb16fe9U, 0xbb6829963e2fdd46U, 0x3e02584c3cbf9ec5U,
  0x3e526b7ebdc80f16U, 0x3dd1fa723c0d0234U, 0x3d6ac46c3e492cf4U, 0x3e26f5e13d129680U,
  0x3e142838bc872e6fU, 0x3e5436333d95c8a3U, 0xbc36795f3dfaaa87U, 0xbde56348bc6b9111U,
  0xbbbb6858be1f15a0U, 0xbd51cd54bddea977U, 0x3d8fced5bca8aaf2U, 0xbe0a5b9dbe001aaaU,
  0xbe070ab83d8c52e1U, 0xbdf74de73dc6bcabU, 0xbe80ab4cbe332e59U, 0x3d8cc82c3e89bc16U,
  0xbd47a321bc557a8bU, 0x3d05ea85bd4336d3U, 0xbd9885603dcbcf72U, 0xbe1e9375bda6051bU,
  0xbae872ea3c6664d6U, 0xbe3012b83e6a68bfU, 0xbe099f723d01abbfU, 0x3d266a5b3ce0f802U,
  0x3d5abb59be2e1237U, 0xbc4ac29a3d0dd108U, 0xbdd0c3d13df5ec60U, 0x3d64516bbddea894U,
  0x3dfdc3c13bb9cafbU, 0x3d214d563de6f0f9U, 0x3c3ef6bf3d0399f2U, 0xbd5d5d903d69d593U,
  0x3d5656873d52705eU, 0xbdbd45d6bda3a94cU, 0x3d84fa7d3d0d8788U, 0xbd3d00dcbdd8ef15U,
  0xbbe56de5bd15469fU, 0x3bc53aee3dde70c4U, 0xbe3f66d1bde80e4aU, 0x3d9915623e2f37c1U,
  0x3d8a575bbd44bd25U, 0xbb22eae3bda03b56U, 0xbd3d6db73da3dc20U, 0x3e0a518dbd884376U,
  0x3dddcb003e0e33d3U, 0xbddb7c7e3cf35077U, 0x3d386972bd19265cU, 0xbd89a4353e2d5aa6U,
  0x3d6bbbb03c91259eU, 0xbdb707f93d95b3c8U, 0xbd8843873e32eb9eU, 0x3db2dfdf3d4cfec0U,
  0x3cf873c03c1155d6U, 0xbd226e2ebd633660U, 0xbd7fc1f73d3a2366U, 0x3d96795d3d332855U,
  0x3daf067e3e17fb86U, 0x3c7143793e4f99f6U, 0x3d95d0a2bc6c5f8cU, 0x3c249686bd8f0566U,
  0x3dbf3aa13db9d4a7U, 0x3d150c4b3db1e2e2U, 0xbd9b8625bd0d5f8bU, 0xbd06f0503dd61118U,
  0x3c9bd0883e1dbb81U, 0x3ded45903e3599dbU, 0xbdd1e187bd4b07faU, 0x3d947148bd583145U,
  0x3e495a303cd3cb0dU, 0xbd84b4ed3e0f163eU, 0x3dd0e5ad3e084ad0U, 0xbcf4b0b33e03da0dU,
  0x3da5099f3e1f1bebU, 0x3e3fe8a1bc72a3fbU, 0x3deee1933c8dc248U, 0xbcf62a9b3d2bc63bU,
  0x3d8256fa3e06a0adU, 0x3dd47b173dd19a58U, 0x3e55c6653e3199a4U, 0x3bf512cfbdadd997U,
  0xbd6644db3d523653U, 0x3e76d49fbbbd976cU, 0x3c209b72be12c124U, 0x3b4ad04a3d99ad97U,
  0x3d29caacbcf17b61U, 0x3a2f8a02bd5a971cU, 0x3c8c2b5bbde8a448U, 0xbdb3a172bd4ddac8U,
  0xbd9cd53f3e5f5a2cU, 0xbc426a4f3df9a686U, 0x3db0bbdc3d8feeeeU, 0x3d9b497ebc3c2238U,
  0xbb64df853d97f2e4U, 0x3d7ad29b3c9cb2efU, 0x3e80a8683dfc18d7U, 0x3d7939aa3dbce619U,
  0x3e24ed683e424038U, 0x3df40ab9be0fd572U, 0x3db386e13e0ee1abU, 0x3e56446e3e207de3U,
  0xbc094aef3e3513d4U, 0xbd2024e4bdfb3bb6U, 0x3e1850d13e05343bU, 0xbd06b28cbdda4b0dU,
  0x3d9f2587bd781286U, 0xbd04f2d13d820425U, 0x3cf2db9abdde1f39U, 0x3d011200bd3d6dffU,
  0xbca5a7a7bcc5d8beU, 0xbd0f10fb3df98841U, 0xbc3efe17bd9c12c6U, 0xbdd691b03b4b0783U,
  0xbe15f176bdb0a31cU, 0x3dba27993e491da8U, 0x3e036855be8ed0f4U, 0xbd4db0dabd5c870fU,
  0x3e2a24293bf44c40U, 0x3dbbc160bd9421a1U, 0x3e16fac83dc41ffeU, 0xbd97c0f63e0b143eU,
  0x3df1800bbcf28295U, 0x3e02cbd43d8f9b00U, 0x3c6d4c6cbdb1ad99U, 0x3dbb6655bc8f602fU,
  0x3db373063d91ad6bU, 0x3d80852f3ba3b376U, 0x3c9b4900bd169b97U, 0x3ca92d93bd6e1416U,
  0xbdbe69c6bcbbe72dU, 0x3dc9e8623e1c2303U, 0x3e14a10b3d18e83bU, 0xbce5793fbd8ca7a5U,
  0xbcd31074bd6a6f06U, 0xbddea5f53e18e30aU, 0xbe2288eebdc9ebb0U, 0xbd83088b3dd4463eU,
  0xbd4b2fecbdb3b58cU, 0xbbc6dfeb3e09ce0aU, 0x3d9394cabce8d2e3U, 0x3d77656cbe4e5c53U,
  0xbd527d36bd0ca910U, 0x3b7c3c3f3e2ba954U, 0xbd436bfbbe389808U, 0x3d32feda3d25159aU,
  0x3d9c94ef3e7999ebU, 0x3ea4b7d33e7a1632U, 0x3e49647ebd9f708aU, 0x3d470b3dbd6339ecU,
  0x3c998772bcd4c09bU, 0xbc9180b1bdaa8937U, 0x3e51ee083cb7caceU, 0x3d1478d93e8fc096U,
  0x3d7908a4be97149bU, 0xbd4aef1f3ddf7ff8U, 0xbe0405053e656778U, 0x3c98170c3da51194U,
  0xbe744522bb6424d1U, 0xbcab53b23e07b4b4U, 0xbe2b89eebd9543caU, 0xbd7af3473ec5630aU,
  0xbe17ce3fbda9e311U, 0xbd61853f3ed13bbcU, 0x3daac0ef3dda84aaU, 0xbdcf4b88be5743fbU,
  0xbe25fd9bbcac74e7U, 0xbd942d603dc1f4b7U, 0xbd8c432fbe8d8e40U, 0x3dc7eaf73ed21c41U,
  0xbe2211a43e257a08U, 0x3ddae0993e5e88a5U, 0x3cceb12fbdd7831eU, 0xbe13978abe071347U,
  0xbd7ecd7bbc999663U, 0xbe0ae7e23dcff6d4U, 0xbd7c2d8dbe785212U, 0xbd852bba3e93a35dU,
  0x3e2b7f5fbdf2509eU, 0xbe13183cbe1e461eU, 0xbd4e9c9c3ca9de80U, 0x3dbc9ef7bc9907d6U,
  0xbdcaab4e3e043bcfU, 0xbd505a24bda992ebU, 0xbe2e30a03d72961eU, 0xbdc7aba83cf3d75dU,
  0x3e001a32be94664cU, 0xbe988b54bd07a68eU, 0xbcf4a1a63e10d2a2U, 0xbdc2db91bcd6c082U,
  0xbd2045efbd149f3fU, 0xbd22b771bce791e4U, 0xbe43c88cbdab96d2U, 0x3da679013e294dadU,
  0xbd1946ebbd9f9968U, 0xbe258d7b3dd6ed72U, 0x3dbe9e46bdbe2d3eU, 0x3d61785a3d1b29a7U,
  0xbe3ac908bda7d1e1U, 0xbdecb9253d443c75U, 0xbe2bb449be0a8563U, 0x3deb32753d959f7dU,
  0x3e3b123f3da6bc0cU, 0x3d5ee4c93de3f934U, 0x3e44912d3e04c074U, 0x3dbc39953e19c1e3U,
  0x3dce6d163d9d0f66U, 0x3e54ecb0be3bb334U, 0x3e8da1f03dfec266U, 0x3cab1c743c8509b5U,
  0x3cfb0a6c3d1df3b1U, 0xbc5d8666bdba2e7aU, 0x3e055e413da8fe6eU, 0x3e5e063f3e4801fdU,
  0xbd980c5e3e39a7b1U, 0x3e488f9dbd77500bU, 0x3caddb463e529875U, 0x3dd9014ebe792ea4U,
  0x3e00b96fbc945c40U, 0xbd6ec2b73b712204U, 0xbd70ead93e3fac27U, 0x3de461e13e10d428U,
  0xbbaa39de3e24d5fbU, 0x3d6a5dbebd5f999dU, 0x3d3490fc3de4dd67U, 0xbcd5104c3be3a506U,
  0xbd14a3d83e26bbdbU, 0x3e39f1823e7fdf1eU, 0x3e29fd5bbc60ea55U, 0x3de86862bd2b468cU,
  0x3e794a063e22b86cU, 0xbd8adab7bdaf46feU, 0x3e27fa5b3e1754deU, 0x3ae2b330bc96ce22U,
  0x3d867f1f3e0c0185U, 0x3bfccca93dd88baeU, 0x3d4a3ba9bca05a59U, 0x3d126c263de62d8aU,
  0xbdc4511ebe0da605U, 0x3d95ce623e6ada1dU, 0xbd93d2903dac8b9cU, 0xbd444655be945c75U,
  0x3c8670d9bd87725bU, 0x3d4c19dd3e2034e5U, 0x3cf58361be459708U, 0xbe02b257bd5f9fbaU,
  0xbdfd23073d8ec156U, 0xbe007ec33e655025U, 0xbd92ce74bd64ce42U, 0xbc7a2badbd012cecU,
  0x3df55d9e3e621fbaU, 0x3daceef73e9c7925U, 0x3e248d013db074abU, 0xbcd15b78bd3ff269U,
  0xbd2081e8bde6d7abU, 0xbc60e2063d1eb6a9U, 0x3e0862433e267b77U, 0xbdf144b13d8acc31U,
  0xbdf2d2b4be12333dU, 0xbe1accad3cd84e41U, 0x3d6af0b33c7ca984U, 0xbe3863c0bd78777cU,
  0xbe466ea8bdd9d1bcU, 0xbca5653e3e936a7eU, 0x3d049768be3e928dU, 0x3d1ca4ebbc0a82daU,
  0x3d89dfefbdd95a3fU, 0x3e01826b3d498b9eU, 0x3d8188a93e070ae8U, 0x3cfd68abbe33e392U,
  0x3da370443ddb39fcU, 0xbd411b703e8a9632U, 0xbda9d6bdbc84cb04U, 0xbcc44cc43e58cbc7U,
  0xbcef01f23d5b3b36U, 0x3bf9ba8ebda2d64dU, 0xbd6ef000bc0d2e50U, 0xbdf777e0bcb98a52U,
  0xbe3cbd52bc9b5d03U, 0x3d4e5d433e065c3cU, 0x3ad07899bd523eadU, 0xbd8911bd3e0c9298U,
  0xbc7603fa3c145da4U, 0x3e44a1c3bdccc462U, 0x3e0a96763dff866fU, 0xbe01a7cdbdbede53U,
  0x3e3b56d43da49f84U, 0xbe2f5fa83da7d27bU, 0x3ccafbd4bd4ad245U, 0x3de389713ec39cdeU,
  0x3dda5b2bbb8e570eU, 0x3dd612d9bd710fbfU, 0x3dae739e3e7d17ecU, 0x3d38f41e3ce308fdU,
  0x3e00edbd3e7d8cccU, 0x3cf68f313e22de30U, 0xbcf993163cb233c7U, 0xbc7a0f253e5c1ebfU,
  0x3e2cedc43ddf3e2dU, 0xbd35eb2e3d7585d6U, 0x3d6e63413e2b6f64U, 0x3e1d42f93d9c8dd8U,
  0x3d93d7393d47818fU, 0x3d883cc43ddc3068U, 0x3e0df1d93e4a3933U, 0x3d851dddbcbcdf52U,
  0xbdb6e9e5be106ad6U, 0x3d370e703df841d5U, 0xbd33d11abdc26669U, 0xbd8de76f3d68ea1fU,
  0x3c92473a3bd935c2U, 0x3d50f0973e42cba1U, 0x3d2809e8bde9aa17U, 0xbd952844bd5809b2U,
  0xbdea6946bca6ab26U, 0xbcfa15f4bda75b50U, 0xbcc70266bd1e905dU, 0xbd9773ecbc0c5b1cU,
  0x3db6bd453db8977aU, 0xbc399abc3ddf83d9U, 0x3d6ee3d83dcb69dfU, 0xbd0c22773de1cbfdU,
  0x3d050ece3dcbe3d2U, 0x3df0722b3d2cc535U, 0x3df72d6c3e061ba5U, 0x3c0f80a73daf03a4U,
  0x3c0b6daebde2a906U, 0x3e3cb6403e72010fU, 0xbde5a5393e2a04c8U, 0x3dc227b2be4df64dU,
  0xbddef47cbd4e4e57U, 0xbe4894c8bb99d95dU, 0xbdd03934bd4f84b5U, 0x3d1431f7bdb30ca5U,
  0xbb974aaebe149f19U, 0xbe0fe40a3e360b3cU, 0xbda801c9bd1220a4U, 0x3bbfae89be751af2U,
  0xbd231cee3e107e63U, 0x3d1e97c5bc7577d0U, 0x3d9fe52cbde47e11U, 0xbdd2f2f23cfbb351U,
  0x3dd10a7bbdef3e51U, 0xbd8973843e28dc29U, 0x3d4d254abe22b13aU, 0xbde3ea813c55b51aU,
  0x3e100aabbb801e2bU, 0x3dc1eff2bd938dccU, 0x3defbe16bd4742daU, 0x3de655b0bcb941cdU,
  0xbdd1b61a3d9fc988U, 0x3e186f893e914c96U, 0xbe1076593ddf7b5bU, 0x3dc89b7abd955e17U,
  0xbd041fdc3b156c77U, 0xbe29ab46bd241d77U, 0xbe21a4013b8aaee7U, 0xbd9569c13d3dd536U,
  0xbe42058bbe1e39ecU, 0xbdabcb9e3dfb2760U, 0xbe2b7ab8be1fbba3U, 0x3df162af3dcd48eaU,
  0x3d3def243d9006e1U, 0x3d7078fabdcd9253U, 0x3d52b44b3cbc82bfU, 0xbdb63b1dbdd8dc7cU,
  0xbd44f333bcb7874cU, 0xbc78c71ebab73442U, 0x3d1d0fe8be1435beU, 0x3d8d6f0e3e0b4541U,
  0x3d055bc5b775c508U, 0xbdade7edbd8e634bU, 0xbe0d9d543e8b3af3U, 0xbdf33d623df2a8f1U,
  0x3e2a38273e006297U, 0xbb47f75c3e1a90c4U, 0xbcae0543bdc2a985U, 0xbd49b4603e4cbf82U,
  0xbd8283a9bc694ba5U, 0xbe1eac5fbcc29147U, 0xbe62614c3e8da9aeU, 0x3d0cfedebd69ace6U,
  0x3d35d77b3d370fa9U, 0x3acfdbb03de9f334U, 0xbd1a37ba3e1f9648U, 0x384b52563cc94698U,
  0x3cb68aadbdce5ca1U, 0xbe4b1cdfbe429a76U, 0xbe58aea53e5f58f8U, 0x3b80c1eabcb1dddcU,
  0x3c08aa103e3434dcU, 0x3d50f41f3dd4cfa0U, 0x3ca28ba4bc8ce6c9U, 0xbda6ef06bdc4c804U,
  0x3e0edad938c62749U, 0x3e061aa43dafe5b1U, 0x3d4ab1123e0566a5U, 0x3dba68ab3d05d4d4U,
  0x3e505b2f3df44326U, 0x3c3aff423cc89f40U, 0x3aff66a23cd6543dU, 0xbcabcf0e3caf85a5U,
  0x3de3e6233c400f7eU, 0xbc64c4f93cff024dU, 0x3c958d20bc65c744U, 0x3d7403ef3e1a7178U,
  0xbc84fb8b3daf2000U, 0x3e4613c6bcf4c106U, 0x3d24dfdf3e39bc92U, 0x3dcfc76dbe407b50U,
  0xbd1dfbb53dd2321eU, 0xbe93c741bdb15e0bU, 0xbe3c09453d986aa8U, 0x3e1bcfafbc2ed96eU,
  0x3ccfa292bd691941U, 0x3e0c95643c29916bU, 0x3dc071b53c39aa5cU, 0xbd9ddbc6bed1678bU,
  0xbd66f6843dd56095U, 0x3dd93d493dac57edU, 0x3e08a801be1f8661U, 0xbd85ad4bbbc29bacU,
  0x3bcb79a23cc1fa31U, 0x3e01acbc3d98c4b7U, 0x3da46433bbc5453eU, 0xbdd9a0abbe8d9a81U,
  0xbe040b49bcc02cecU, 0xbdfae368be1ba9d1U, 0xbd1e1f71beb5fd09U, 0xbc81f4e43cf78541U,
  0xbdf86100bce2497eU, 0x3dfb80443dd16d91U, 0x3b73b830bde80e25U, 0x3dc05da9bed18e54U,
  0x3c231d333c32cc39U, 0xbe2fce363d321241U, 0x3da47c4dbe92295bU, 0xbdb019513d3854fdU,
  0xbe13a1abbe1dba40U, 0xbd1d68b9bda78b32U, 0xbdfa5901bc83ba9cU, 0x3d967bdfbee3a3e6U,
  0x3d8aa9cfbdca3b9bU, 0x3de2e6153dfd4addU, 0x3d2f98e23e0b4e41U, 0xbd10564d3e4e6493U,
  0x3d286f26bd841a20U, 0x3d916afbbd5bc135U, 0xbd47c1903d7cf656U, 0xbdbdb37fbdcf7ebeU,
  0xbacc22b8bdb8ae3aU, 0x3d6a123a3da85bf9U, 0x3cc5ed663c4e5854U, 0xbd9e100fbdaa44c2U,
  0xbd45f8a7be01a4a4U, 0x3c91c3503d36f8e0U, 0xbe3f37423cbc32c0U, 0xbd349f95bc140dcfU,
  0xbddfd9a53d2b0a43U, 0x3ddc14853e0b5941U, 0xbcad5afdbcdd72acU, 0xbd81fca6be0743beU,
  0xbdd019d5bd00c58aU, 0xbd33e9313e798927U, 0xbdb461693d867629U, 0xbe170de33ea51b65U,
  0x3e4a6084bd9408a8U, 0x3d84f1253e0b1a14U, 0x3cedfd1e3c295fefU, 0x3e332ee63dfeaef7U,
  0x3d91cf16bd88f20cU, 0xbcd2b9e13e1d99c0U, 0x3d4b374e3dbf6ea8U, 0x3d89ae59be6f7fd4U,
  0xbd0def92be85289dU, 0xbe44484c3cab20ddU, 0xbce72e06bca63789U, 0xbd935437bd9330a8U,
  0xbe0aaa1bbd3cfd14U, 0xbd43d47e3db4b1abU, 0xbdd4dc283c699d69U, 0xbdad0aa7be266c37U,
  0xbcbd3bd53d90356cU, 0x3d96565bbd7b44dfU, 0x3e1b9ba4be35f9d3U, 0xbdf4a33e3d25de05U,
  0xbdb75b53bdbc39fcU, 0x3dbe92013e80d483U, 0x3d8d15e6be1877b0U, 0x3d53a0fa3eaa79bbU,
  0x3e3cf3b63c916c96U, 0xbcfdc2013d9508a9U, 0x3e1cb3643d81fb4cU, 0x3e154c2b3dd59c75U,
  0xbd0a713fbd8334f3U, 0x3b75a0b93c7380a3U, 0x3bbd9bf53dbacbe0U, 0xbdb2aad2be36f497U,
  0x3cdef7c1bdc57f60U, 0xbd93b4283c4b9fe6U, 0xbdd8a74d3d080f54U, 0xbca67b96bdc41080U,
  0xbdf88017be0356acU, 0x3d610ee73dd17829U, 0x3cda03cebdad6ad4U, 0xbda8d170bd52758bU,
  0xbdc91e40bbd1c9ddU, 0xbc1c63d13d8ab620U, 0x3e0de9e93d0c048bU, 0x3de3956a3dd3b3beU,
  0xbba43455bbef7a8aU, 0xbd2f83d33d8e4552U, 0x3d034b7ebdf2e31dU, 0x3cd1562c3e8da604U,
  0x3c72074d3a86e8faU, 0xbd95b57c3e213b99U, 0xbcd33a69ba703407U, 0xbe1e4732bda8e65dU,
  0x3d907c213d85b9b9U, 0x3d77be4b3dd440c0U, 0xbdc5b6b33de56e76U, 0xbdf323423bfce6e3U,
  0xbe2323aabd32ea4eU, 0xba2007423dd60e84U, 0xbdf8e21ebdfc6dccU, 0xbbb34b4bbe184dceU,
  0xbc7063653d7d38f1U, 0xbdd976a63e55e3c7U, 0xbb375ed6be2a6803U, 0xbd7fefce3d5b74f1U,
  0xbd0ff8803e5a4010U, 0x3e596500bc396f70U, 0x3e1d18503df7286cU, 0x3c4ebf33bd9bcdc2U,
  0x3d128b9cbd72c5b0U, 0x3d8af1b03e0704f3U, 0xbd8d008b3dacea80U, 0x3ba1860a3ea0a0c8U,
  0x3c29c95fbbcb434fU, 0xbdddcd0f3b2275d2U, 0xbdb87d433d6bf3dcU, 0xbd9347e33e1f4006U,
  0xbc1112fe3d96d816U, 0xbe18f4eb3dd5647dU, 0xbbdf489a3d8137c0U, 0xbd87dedebde493b8U,
  0xbdd8c84e3e596fd9U, 0x3dc8c67cbcd900e6U, 0x3d82e364bdaf3465U, 0xbdc9e707bdfca00cU,
  0x3d97f0a43c6df83bU, 0xbd618ae13d89c069U, 0xbceb041cbd6b52b1U, 0xbdbfaec43c3c9136U,
  0x3d9608f53d5537d3U, 0x3e262ba63d9f5fcaU, 0xbcc9a72fbd9cfb74U, 0x3b807a75bddc1485U,
  0x3e210fcabc702eb3U, 0xbdff6a873d81e15cU, 0xbcac4c733d70bc17U, 0x3dfe30793d01f3d9U,
  0x3e19a1623cb0e4e5U, 0x3d4f0c86be04fbc6U, 0xbe08a48d3e8967a9U, 0x3e2a39b43dcc4739U,
  0x3d9efc0c3e3db4e5U, 0x3dfd279ebad3dd5cU, 0xbd367cd43d861ff2U, 0xbd4c93a53da85c59U,
  0xbdb4ac6b3d4e03abU, 0x3dec81a73d7f3f08U, 0x3d95303c3e356b00U, 0xbd8ea543bd808ed7U,
  0x3da1ebd53e1b5a08U, 0xbd80118c3dd0b6f2U, 0x3df14d4abd3f917aU, 0x3da98f113e093811U,
  0xbca3a0b93e4bfaa5U, 0x3e45c1a5bc6c21e7U, 0x3e45862e39963098U, 0x3dc79fa0bdc6904cU,
  0x3e1af74d3e01b018U, 0x3d8dc95ebc7442e2U, 0xbd1128f13dc29683U, 0x3c6542543c42011bU,
  0x3d255b8a3e849f70U, 0x3d2f6d323eb1c51cU, 0x3e297218be34d803U, 0xbd43ed7a3de29d92U,
  0xbe14abb63d73fd75U, 0x3dc39f373dbf3309U, 0x3e32cf14bd4f2fc2U, 0x3d3230d8bd20be2fU,
  0xbe05b9a93e7e9518U, 0x3da5e16b3ea11d4eU, 0x3c82271dbe71d54fU, 0xbd1af6b63db0cfa3U,
  0xbddb1f3bbe43b852U, 0x3da861183e0d368bU, 0x3dffbc493dd332d9U, 0xbbe7b6e7be47729fU,
  0x3d8483623e4f285aU, 0x3e2830693e71edd6U, 0x3e159f36be12f942U, 0xbd5d311b3d8e9c7aU,
  0xbd899c02bdae3023U, 0xbc9a151b3e68d179U, 0xbcbe6af1bd8648ceU, 0xbde0301abe264a57U,
  0x3d32a1ebbe4fba55U, 0xbcb75a43bdb20597U, 0x3e0afa903bb530c6U, 0xbe0c2442bd86ff3cU,
  0x3b06a6f43adcd3f7U, 0xbc8e3787bdf981b6U, 0xbe2a8bd0bdbf871aU, 0xbdbff9e83de9593bU,
  0xbdced5dfbe86d51aU, 0xbdbcb0393e2cedbaU, 0x3decff423db85c99U, 0xbd5245353d9f62acU,
  0xbdd7634bbac98a9eU, 0xbe286e613d14d806U, 0xbe95a5a2bdecd890U, 0xbddcc4103e2cc4e0U,
  0x3d585ff9be7133f1U, 0x3d82b21f3e131238U, 0x3bca6f3f3d4f8b2aU, 0xbe265bb4bdddc64dU,
  0xbde461b13d3933ffU, 0xbe174ba63e14f90eU, 0x3a98edf3be4a66d0U, 0x3deb54bd3e9e6d4fU,
  0x3cfbef71bd064b5cU, 0xbe204450bdc88a6cU, 0xbdc2a6683c3b2c45U, 0x3e1a50923e03cc1dU,
  0x3e1571823e17ff27U, 0x3e08a9c4bde28663U, 0xbbdd9472bd326573U, 0xbdce60793e449d18U,
  0xbc986d77be1cf1deU, 0xbca5f008bde12efbU, 0x3d80db9f3e06ca6dU, 0xbd17a9bc3dd55f3fU,
  0x3c65d5623d9b2972U, 0xbd2a000bbd0c4161U, 0xbb6e96293e3f2cc1U, 0xbddc18cf3e283694U,
  0x3d7f188bbb7936aeU, 0x3d585fb53db1c518U, 0xbc5f0ba53ded41d9U, 0x3d7419613e271550U,
  0x3c303a573da82c45U, 0x3dc33c183b4f9458U, 0x3c3d4c273e0018a0U, 0xbdad7edd3d2e3b66U,
  0x3d3b280c3ea15caaU, 0x3d9c8ac7be218d17U, 0xbec827f43e76fbc0U, 0x3dc1f19fbde10380U,
  0x3e0d57163e258e6dU, 0xbc23cc133e079266U, 0x3e10eb8c3e056be7U, 0x3d7311d53d9e0d06U,
  0x3da7bb163db01dacU, 0xbd616c0f3d95e568U, 0xbe76a30a3e96ee48U, 0xbe13d540bc2bebbdU,
  0x3e0ae4d23e0a85b0U, 0xbe15df07bd32aceeU, 0x3e049b693cccd0b7U, 0x3d9d4ffe3e42864cU,
  0xbdabe92e3e4685bbU, 0x3dadda263dbe1c88U, 0xbe882ed43e037230U, 0xbd0ccd73bdcaec6dU,
  0x3e190a4d3b83e83aU, 0xbd072f06bd151d77U, 0xbca688d53dd7f7abU, 0x3dd42e1e3e4c5492U,
  0x3dee684a3e162bcfU, 0xbd9618573e536de2U, 0xbe71c33b3e6ca466U, 0x3d440e173ce88c0dU,
  0x3db7dccd3db3991eU, 0x3ce394d03d6de132U, 0x3e32f0cf3c0daec2U, 0xbdeb1b843e83778eU,
  0x3d305752bc07dc8dU, 0xbd1ed3ca3d01b0b5U, 0xbe8d84883e449d6eU, 0xbe0fd3d23c7257b7U,
  0x3d3d1727bdc14d31U, 0xbe23a33f3e073152U, 0xbd98d50f3e067ac4U, 0x3dd6bc96bdcbb0f1U,
  0x3d6beb05bd3973a1U, 0xbe83bd9bbe17d9ffU, 0xbe90b5393dbb9aedU, 0xbde04b58bc87e723U,
  0xbd00a616bde65bdbU, 0xbddc47873dbe05aeU, 0xbd86f784bd6df839U, 0xbdbbe887bd39dab5U,
  0xbd8c444c3e3dd0edU, 0x3e08e7a23e76fba7U, 0xbdce80c8bd6f5da2U, 0xbd152aacbd0a019dU,
  0x3d6eb4973e069f10U, 0xbdb17dc2bc9f1d1eU, 0x3db51b2db5e0cb60U, 0x3deb0f153ec1f271U,
  0xbd28a8c33e67bf24U, 0xbd0f962c3e1d207fU, 0xbd57d12e3e14e986U, 0xbe1b1ea63d354532U,
  0xbd8ef274be1ae126U, 0xbd2b9a473dd18092U, 0xbca308983da23495U, 0xbdf82cd1be06804fU,
  0xbe12cc523e5970feU, 0x3cf71bfd3e05013eU, 0xbda1f8c5bd44d60dU, 0xbe2ce17fbdd6a2e0U,
  0xbdd7c9d9bd1e7cb7U, 0xbe24d7fb3d389a4bU, 0xbe0a800c3d05fed8U, 0x3d8dee3abbf778d0U,
  0x3d51cff43d483171U, 0xbc44c55e3ec2411fU, 0xbde74df13e642918U, 0x3d844f693dc00a9eU,
  0x3d953dad3dd85e18U, 0xbe4d95643e2fe549U, 0xbe49b69cbe269f20U, 0xbdc521f23ed90211U,
  0xbe3d6dbd3e14ccf1U, 0xbd062ae83eb3bbaaU, 0xbe2706aebdb2d9beU, 0xbd8699e3bdbfae0aU,
  0xbce6afc63dedc319U, 0xbe099fa6bdf24366U, 0x3e1a5bd9bdb27ac7U, 0x3d57f1a03e9f766bU,
  0x3a8e825a3e9120d4U, 0x3e925a2c3e0e744fU, 0x3dedfe88bd872b29U, 0x3e0e66ea3d1b0093U,
  0xbd6a9578bcf8c1caU, 0x3dcd3aa73de5f9eaU, 0x3dd35d7f3dbd8917U, 0xbd9b72ed3e876965U,
  0x3cf1411b3de04eb0U, 0xbe4a85aabe58b605U, 0xbd9e30973ddef1a9U, 0xbe0b87733c8aac89U,
  0x3d527645bd462cfdU, 0x3cdea398bd5591a4U, 0xbe2d59aabdb12b50U, 0xbbc7146b3d9f7beeU,
  0x3db620623e033f94U, 0xbcb33b233d8e709fU, 0xbe638a043e66aadeU, 0x3db5b8fcbd9d6102U,
  0xbcec74f03e15ec19U, 0xbe40be32bd7ba56aU, 0x3c62d12dbd182253U, 0xbd4d8e303e899c72U,
  0xbde797dc3dfa0340U, 0xbc0facc43e6cf2a6U, 0xbdb3462e3d205313U, 0x3da87762be2180feU,
  0x3e2006253cb5af3cU, 0xbcb8158cbdb77d03U, 0x3cbb960cbe2158adU, 0x3d7fc7be3e03d9e1U,
  0x3e24aeea3cc45abcU, 0x3e8891283d68cd7aU, 0xbc63c9b13d5deb14U, 0xbd012a703dfffd73U,
  0x3dc6489d3e50a17bU, 0x3d33fbe53d4a9a3cU, 0x3e3bc38b3dba9311U, 0xbd82acf13d67afadU,
  0x3dd752c33dba74c7U, 0x3e1fec38bc80b206U, 0x3d2217103e6de589U, 0x3c8e5ace3e18965cU,
  0x3d9ad93cbb534aeaU, 0x3dc609efbbf3add6U, 0x3e2e69cc3af9d42cU, 0xbd9db46eba884402U,
  0xbd9562d83ce960afU, 0xbd7ea7ddbbe5014aU, 0xbdd5dbcf3ded2b0dU, 0x3d34f1a03e038439U,
  0xbd6f5a633dfdad8aU, 0xbda7ff893d88505fU, 0x3e0b0627bd4304eaU, 0x3a9e939d3d99df5dU,
  0x3d8514af3e0bfb33U, 0x3dd25ee03e87b80aU, 0x3da958e73d615e0bU, 0xbdff2ff0be2f52baU,
  0x3d8fcc2b3df883a7U, 0xbe2097ef3d010decU, 0xbce961d5be4875deU, 0xbb01d5043eda6666U,
  0x3ce3100fbe0d1b1fU, 0x3e83b2c73da334b7U, 0xbd34381f3e0fd2aaU, 0xbbf42a8f3cddce51U,
  0xbd08602d3cd9def0U, 0xbe0915c43d166cd8U, 0xbc87670cbb099fa3U, 0x3cf3989c3e784542U,
  0xbe1cdd393d958601U, 0x3e608d103da3ba4cU, 0x3e6272f7be02be1cU, 0x3dd357efbc338738U,
  0xbd539e793da7520aU, 0x3d6990023d605daaU, 0x3d752941bddad745U, 0xbda9411d3de49f74U,
  0x3c93ab073d9abef4U, 0xbb1db7d93d86087fU, 0xbd8a21c33de03002U, 0x3d9b42f33cf1acf3U,
  0x3e59d2d33e186419U, 0xbe097228bdf48352U, 0xbdbb2ca33dccfed3U, 0x3de9fa5a3e739698U,
  0x3d12526fbe09f1e4U, 0x3d726cd4bc8f776aU, 0x3d59dd9bbcdf6908U, 0x3db05f243d7a359fU,
  0xbd55b076bdb2e97cU, 0xbd8da1393d2b7291U, 0x3d542cc83df76e50U, 0xbdec34ae3e8fa570U,
  0xbdbdec70be087737U, 0x3db5b2d53e686a71U, 0x3c4551aebe5f3a4eU, 0xbddf464a3cb6d740U,
  0xbe110417bd3dd2fbU, 0xbdfa25d73da11e52U, 0x3c989231be0e09f6U, 0x3caf116e3c92c935U,
  0x3deeac873e15a013U, 0x3d9758dd3e210240U, 0x3e1503423da964f0U, 0x3d28e4f93ddb5468U,
  0x3e558d733e09d2b3U, 0xbd4a8cf4bde470b1U, 0x3c0733083d670c6eU, 0xbd97e36d3d6726b7U,
  0x3c86c0d53e27c8c4U, 0xbd440f28bddd05ceU, 0xbd4cc27c3e34896cU, 0x3da3bd593e1d2df9U,
  0xbda15e3cbd3416d4U, 0xbd4e02363dd86c44U, 0xbd9f52b43e2be5a9U, 0x3dabbd58be52a6d0U,
  0x3d7ee570be3b5480U, 0x3e20a92e3ca0e942U, 0xbc1d9fe8be048f92U, 0x3cc196f5bdcf916aU,
  0x3ce6e6023cd1952bU, 0xbdc9fa983d060e29U, 0xbdf9be49bd61ae3eU, 0x3c9cd2dbbd7c2a1fU,
  0x3cd24196be3d08d8U, 0xbe1ad8a43d3236e4U, 0x3e0bd6cc3da144b1U, 0xbd6c51ab3d4a5f1fU,
  0xbe31dc89bdce45c1U, 0x3bac1aba3d9ac5deU, 0xbc1ba4093c9ce8cbU, 0x3d6f86e6be971e18U,
  0xbd88dc76bd800676U, 0x3d7342c8be4e9e19U, 0xbde06255be42f7a6U, 0xbdbdbe4dbdefa2ecU,
  0x3e35463d3b140a4aU, 0xbe059353bd6604a3U, 0xbd11bd45be04b4a0U, 0xbdf75c793e26793bU,
  0x3e361709be2c3246U, 0x3dd026293dd7ca64U, 0x3d9036763e33c294U, 0xbbad6afd3dc5cab5U,
  0x3e28d44b3c3a04b8U, 0x3dd7069ebdd4aeb6U, 0xbd677e0c3e1155d8U, 0xbd7022023e29f890U,
  0x3dabae21be2f6535U, 0xbe39ef75bdaea528U, 0xbd57af4fbe0c93e1U, 0x3d78118cbd70054cU,
  0xbdb04a7fbd9deacaU, 0x3d0991603e24be96U, 0xbdeb0dbc3c4d2600U, 0x3d88bce0be8a366bU,
  0xbc1fd5413e163ba5U, 0x3e483400bd192c1fU, 0x3d96c4d53b2355a2U, 0xbb3466663a245639U,
  0x3e25bb673e3b5d9cU, 0xbd4b9c2fbb165b16U, 0x3d6ba747be15a5c0U, 0xbd15f9fb3e54ed41U,
  0x3df696b83deaa591U, 0x3dac6e34bcca7e9bU, 0x3e2e55eb3e0b5b2bU, 0xbd2c07b83ce1be2fU,
  0x3e079d4e3e0670cbU, 0x3e12d8cd3dfa7550U, 0xbd03f76bbd0d22a4U, 0x3c850ae6bd520854U,
  0xbdc00e6abe41f084U, 0xbe212d79bc8084a8U, 0xbdbb1d23bd98e169U, 0x3cde8db1bd4c317dU,
  0xbdb81bfcbd90a36aU, 0x3dd540b7bccbae4cU, 0xbe5b5729bca2df00U, 0xbd740949be5491a8U,
  0xbdd7bffbbdc5c13dU, 0xbc67d47cbcbd73f3U, 0xbca353fe3d5c969bU, 0x3e1f8c0bbd3417dcU,
  0x3e385686bc9679d7U, 0xbdc1ef72be4e9d98U, 0x3df786a93b33ca03U, 0x3da229fe3e9f3a5aU,
  0xbd62601f3dbd545dU, 0x3ce436dcbd53aec3U, 0xbd46c66a3d6042ffU, 0xbd008ee73e0a79dfU,
  0x3d0c61bebce67aafU, 0x3dbaa8f53d19980cU, 0xbd8a8e803cebbe01U, 0xbb8feaf0bcb5026dU,
  0xbac431843e323ab1U, 0x3dd5ab7fbbe4fceaU, 0xbdb8429abe0b0435U, 0x3d802c293d279f2fU,
  0xbddbb4643d59c614U, 0x3db2d8853d350c3dU, 0x3dc325cdbdcb31a0U, 0xbdb653a3bdf231bbU,
  0x3d9b8ab83e539795U, 0x3da292643d1cdbccU, 0xbd7e103c3c02b88eU, 0x3cc86a5fbcb73926U,
  0x3d15b63b3c6d72acU, 0xbd81e5f33d876d93U, 0xbd7c0cac3ca1caabU, 0xbdf1e62e3d59f0b0U,
  0xbb8516ec3d3d9c8bU, 0xbdc83453bdd09cbdU, 0xbd9b235c3e3aa1efU, 0x3e0f41e63c70aa90U,
  0x3e0021cd3d8fbc29U, 0xbc145688bdafb521U, 0xbc44485b3de1614dU, 0xbd13efd73dea7438U,
  0xbddb8b25bdf02538U, 0xbe09daadbd189105U, 0x3d818f973b725312U, 0x3c9dde8ebc935f2aU,
  0x3a713ee0bc168a9aU, 0xbdcdaaddbdf9c521U, 0xbce40013bd9186f0U, 0x3da4c3d4be0bf02eU,
  0xbe19e3813dec4c48U, 0xbd1ed38e3e536bcaU, 0xbcd2b67dbdba8f70U, 0xbd1b5772bd627feaU,
  0x3e3115623d01bc65U, 0x3cca8a55bbbff912U, 0x3d634630bd0a5c62U, 0x3da4f4cc3c8f66c0U,
  0xbc4829d83c1a9d4dU, 0x3e416ae63d6e63aaU, 0xbdaf0f993cb72b9eU, 0x3e2c3af63e242fd5U,
  0x3e3987d43d9e84e5U, 0x3d95d0a1be00b0a7U, 0xbcc4fa0b3d38a191U, 0x3be2d1be3e2f252fU,
  0x3d22709fbdc92ae2U, 0x3dc8c3d7bdf26f0fU, 0x3d24caeebcdcdf41U, 0xbcb7b75d3cd60b9dU,
  0xbd8d1185bdd301c3U, 0xbe06980e3dd7d343U, 0xbe1835a63b94ec23U, 0x3d877d6bbe38a694U,
  0xbe0f25d93d518ddbU, 0xbc2272063e25ca42U, 0x3be26a59be5a5c87U, 0x3d61fecdbdd2e63cU,
  0x3da8055ebd54e5daU, 0xbdb78605bdab3caaU, 0xbd0a738abdac883bU, 0xbc623c213c231d00U,
  0x3e06c9313e16dfe2U, 0x3e5a12f03d3fcc2bU, 0x3cd7a911bddd8aafU, 0x3dd2e6743d79e1e1U,
  0xbd8b01aa3d3edb59U, 0x3da93f333dbb821eU, 0x3d8a30923d6c65ceU, 0x3dc9816f3c930bbaU,
  0x3ddf5f8b3e2af17eU, 0x3d99066dbd99b062U, 0xbd426c723de844d2U, 0xbd30db213dc72c9fU,
  0x3d1f10413da1e309U, 0x3e13ed99bd5c6e28U, 0x3c7980483db9b955U, 0xbdf45add3e858efeU,
  0x3da4e43ebd6526dfU, 0xbcc22e133d4548a8U, 0xbca630863de4ee4fU, 0x3de06db73d55c6f6U,
  0x3e3a64ed3e05bbabU, 0xbd4fba07bd828bf6U, 0x3b915ea7bb96693cU, 0xbdc3dbafbd3f6e8fU,
  0xbd8de2523c0be18eU, 0xbda3daf23afeaf44U, 0x3a973a793e6da022U, 0x3b0b35353d16075aU,
  0x3d0af882bd94e1f7U, 0x3e141254be4776bcU, 0x3cf4fa0d3e0f95dcU, 0xbdee1ed5bd9344a0U,
  0xbd399e4b3e671d8cU, 0x3d1ff9433dae3119U, 0xbd4b17d13c34fa72U, 0x3d9208083db80e08U,
  0x3ba12699bc392039U, 0xbc83be013d8cf8e6U, 0x3e6987c73dfbfe23U, 0xbe00e75ebdaefca0U,
  0x3d9b42973b7a7bc9U, 0x3c2c876b3d0ae569U, 0x3d0cb23bbe299e72U, 0xbd7355b03da95937U,
  0xbd1ed66dbe089612U, 0xbc9ceab8be059b03U, 0x3e584b4e3d7eeba2U, 0xbc6c7090be869dbbU,
  0xbdf03ef23b577715U, 0xbd3fcf56bd7578edU, 0x3bf25a603c2c2dc3U, 0xbdb0b40a3ce363b5U,
  0xbe65f651be32cdfeU, 0x3d8acdd3bca667edU, 0x3d870b363da3092bU, 0xbd63c6cabee35246U,
  0x3ccbb4fdbcbbb7feU, 0x3c740af33e918deaU, 0x3d3f1296be70db20U, 0xbe2c7ecebd4852ceU,
  0xbe31e4c4bd149dffU, 0xbca95cc13e29e5feU, 0xbcd53de5bbf6357fU, 0x3dd79f7c3db84a83U,
  0xbc9c39e73e731663U, 0x3d0aa5a73e1d99beU, 0x3cd9efc0be1bf387U, 0xbe3db395bdec7eabU,
  0xbd31834abe1fe1c2U, 0xbddca3b63d45884bU, 0xba97b19bbe013d12U, 0x3d1bf79abdbb0c9cU,
  0xbde6c3123e380ad4U, 0x3df045a53e274071U, 0x3d99a5afbe858687U, 0xbcabeabdbe027ea8U,
  0xbb71c762bdd5d9d2U, 0x3b24b7183b2b5546U, 0x3d2909e3be3e5ae6U, 0xbdedf321bd9ddcc6U,
  0xbe84a2ac3e06918eU, 0xbe46ff7b3d4aee8cU, 0x3e21f69a3d5a0ffcU, 0xbe9127bdbe55a75dU,
  0xbe439b94be88974bU, 0xbe2cdcd23e90f332U, 0xbdc945c5be6576ddU, 0xbda33ffe3de9e10eU,
  0xbe54cb4a3d759d6bU, 0xbdd0c4be3e837f7aU, 0xbc3707e63e086466U, 0xbe245e12bdb343b9U,
  0x3e0092dabdc56aedU, 0xbddac3563ec40e5eU, 0x3d836a383d04bfc0U, 0x3dd157133dd2ff75U,
  0x3d81ca7d3dcc69e7U, 0x3e7b435b3e7a94ecU, 0x3d003fc03e24e074U, 0x3c5f9f7cbd5ae746U,
  0x3e43ad923e3c67ddU, 0x3dfe20173de16fdeU, 0x3cee24813e20ea48U, 0x3dc42a173dd9a9bbU,
  0xbe4160bb3dac807cU, 0xbe4f0b223e145e4bU, 0x3cb224e33c07b8a8U, 0xbdbdc74abe1c5bcfU,
  0xbdc520c5bdc20099U, 0xbe1db24d3e977f4dU, 0xbd0c35d7be3d7d9aU, 0xbdf2cb133e3ef840U,
  0xbe519d353c147bc4U, 0xbde70a9b3e6354a7U, 0x3bab314c3dbb3966U, 0x3d993f06bd023b75U,
  0x3d5280263d9f718fU, 0xbe0a883c3e43406fU, 0x3cbcf6c7bdf8a834U, 0x3d8854e53d41e605U,
  0xbd02f2783cc8801bU, 0x3db8f3dc3e15d5f6U, 0xbd19f02ebda075a8U, 0x3d8f5c563dd77a0cU,
  0x3dff05bdbc4ace88U, 0xbd5fcb4abab2fcfcU, 0xbcc7fcf93e1b9d7aU, 0x3ce6f60a3e81c8adU,
  0xbe8df66a3e61b994U, 0xbc9d20bf3dbb2b88U, 0x3e07831bbd8c69c4U, 0xbdf58cdebe501bd9U,
  0xbe2ab570be2f9190U, 0xbe18cb0c3e2b4b16U, 0xbca3df1ebe70c77eU, 0x3c67fbecbcd2161bU,
  0xbcff88a63d9fc41aU, 0x3ce7c78a3a00ab1cU, 0xbb59d843bd1ed994U, 0xbd9274a9be53075bU,
  0x3de23344bdf4f484U, 0x3d20b79f3e9e65c1U, 0xbd9168f2be321927U, 0x3dac66be3e4409beU,
  0xbe11cdc73e273bd4U, 0xbd6b34f13e30f5c2U, 0x3d42fa8fbd86dd1eU, 0x3db193e3ba3d419dU,
  0x3dce4a34bd51627bU, 0x3db2c71a3e35784bU, 0x3da3eda13c3f43cbU, 0x3ddaa3d03c09eb8cU,
  0xbcde159d3e49c2c3U, 0xbd709931bdfc26c4U, 0xbeb3539c3e335329U, 0xbd8bedb5bdb9d174U,
  0x3c55b0ad3bb841bcU, 0xbe267d413de23353U, 0x3e24d0843de866c4U, 0xb9c52d6cbd6dfb10U,
  0x3c8a1d263d388adcU, 0xbdf5c7a9be018ddaU, 0xbe6101cd3d1c35a0U, 0x3cd9ed1abd7c6b4cU,
  0x3bde8b64bbdd2140U, 0x3979199d3d9bfd26U, 0xbda4a2393d72b5acU, 0xbd19edf7be4f0049U,
  0x3d788f723b054144U, 0xbdcae015bddf1526U, 0xbe9913db3e023c08U, 0x3d4cdf4fbe02e8eaU,
  0x3d06b6cfbdf449abU, 0xbd385fccbd53a404U, 0x3e052db33d9357c4U, 0x3cf372ad3ca8e020U,
  0x3d8c51e83ea1da0fU, 0xbe283d883ba3b960U, 0xbec9600e3e40d0a6U, 0xbdae9fecbd74094cU,
  0x3ca490c4bda80e25U, 0xbe5021633dde5591U, 0x3c42279ebbbef48bU, 0x3d3951d7bd8d5eefU,
  0xbc5984363e3dea20U, 0xbe4f23c83c11c4baU, 0xbecfd7483d435482U, 0xbc29643cbbc44b2bU,
  0x3e06fe683d09fa32U, 0xbe352df93df41cb4U, 0x3d80e8e63dabeb9bU, 0xbc90b9cb3dea4b88U,
  0xbd6a4b573dfbfa50U, 0xbe1ca2fbbe03b175U, 0xbe2314783de1e890U, 0xbe0d383cbc46c38fU,
  0x3c7c4ff6bc81fe73U, 0xbd1d6a543deaf888U, 0xbd81e3fe3dfc15eaU, 0x3d9522483d2db0b2U,
  0x3c2e181e3e9354feU, 0xbd4a5040bba29d57U, 0xbe65fef63d946b39U, 0xbdd0149b3d9cf324U,
  0xbd4f7e043da6b3eeU, 0xbe427c483dbab059U, 0x3d96f5703df37106U, 0xbd992df03e2f7e9fU,
  0xbe0f235e3e2f7f22U, 0x3c759351bd8ab0fcU, 0xbea80d163e7290d3U, 0xbdcbfdfcbe1755e7U,
  0x3e305887bd00cfadU, 0xbdfc007b3e1a3f9eU, 0x3e3c16f63d4a0d7cU, 0xbbbab25ebd279423U,
  0x3de5dc093e9180f3U, 0xbd0c2f1e3e0d7218U, 0xbe108e553dafa8ecU, 0x3dcc2d233d28041fU,
  0x3df671e83e014bf1U, 0xbde31dbe3b8ce45eU, 0x3e1e3db0bd8ba1f9U, 0x3cb9dcfe3d59379bU,
  0x3df90b053e83108dU, 0x3db1b2203df05849U, 0xbd74a9debd450c96U, 0x3de3624bbc2d78d9U,
  0x3e2fc95d3da8780eU, 0x3d8da3d6bd0179e3U, 0x3e74f5343da5c5b5U, 0x3afae28c3e914683U,
  0xbd9683203e93a16cU, 0x3e6bc5073e0f2093U, 0x3dec74e43e4555a9U, 0xbdb52f1dbd1e881aU,
  0x3d4bc55a3db34b6aU, 0x3c5757e33da73d75U, 0x3e83e9453cb31ba6U, 0x3cf242a9bd11372fU,
  0x3dd689213ea0679cU, 0x3df2bdad3eb29c5cU, 0xbcb0d2e03dacbb4dU, 0xbd7e91c33d957b2aU,
  0x3ceaea27bdbe17fdU, 0x3e36e9c2bbf2c6c2U, 0x3e8601383e3eb2f7U, 0x3d8d955a3c890d90U,
  0x3d50f998bd03e58cU, 0x3a3de8a73e4f9ec7U, 0x3e29b174be212f1eU, 0x3aed8ae53da89431U,
  0xbd8a20e6be241b02U, 0xba002b29bd911ecfU, 0x3d036e6cbdc0117bU, 0x3d7a61df3cf979f0U,
  0xbdffa0babd5aacc3U, 0x3d8c204a3e890151U, 0xbc2eaaf7be6bfc88U, 0xbd27d92c3d8b10a7U,
  0xbdaa5182be483ba9U, 0x3dc28f113cb51b15U, 0x3de7ebe63ae80b50U, 0x3c0525ebbe7b7d2cU,
  0xbda966563d2345daU, 0x3dad0b963e3e9804U, 0x3e51d002be84a1cfU, 0xbd319c4aba1732acU,
  0xbd931985bde37cd1U, 0x3e17d062bd91771cU, 0x3cb4c598bd0b78a4U, 0xbe00fed53c64d00bU,
  0xbd9049d8bd6ccbd0U, 0xbd4d013c3e4e6545U, 0x3c448195be3f7a24U, 0xbbc88bcc3d2db906U,
  0x3d0acf19bda3e33dU, 0x3d9fc538bd63a208U, 0x3d680b1d3ddef095U, 0x3d3c0255bd8ba120U,
  0xbcca9798be0d3c2aU, 0x3d11d90b3e0a7413U, 0xbd2a6530bd7af420U, 0x3d19abfc3cd41fe6U,
  0xbd7b138dbe103463U, 0xbd50da983ba4446fU, 0x3d8ba898bdf6335eU, 0x3d4980d13db1b7e5U,
  0xbda7b262bda1f9ceU, 0x3ddce9df3e163d73U, 0x3de84de3be080e8fU, 0xbdd580b73b6277d1U,
  0xbd5ec2763cef2cb1U, 0xbe21e5f93d9360b8U, 0x3c556c1bbe121cb4U, 0xbd66e45c3e86c1a5U,
  0xbd00ece13d182e83U, 0xbdc9f258bd98ef23U, 0xbdfb60503cf5fd95U, 0x3dc7b6a6bbebb331U,
  0xbd820ccbbccf0664U, 0xbde03016bdc9f690U, 0x3d17cb623d48448dU, 0x3d0d94903d8d8f6fU,
  0x3d6f93833dd95149U, 0x3e28bac3be03f78aU, 0x3a83bde43e28fd8dU, 0x3d9c4fe93d31df9cU,
  0x3db8a7cc3e24e680U, 0xbd0835aa3e5b7ffcU, 0x3e47da863d86deb3U, 0x3cf8a59abbbf94f2U,
  0xbc5664583e7693ecU, 0x3e26582fbbf78d95U, 0xbe052a2a3e2f6b8bU, 0x3dad43aa3dd5b7cbU,
  0x3c8cac75bd2fa491U, 0xbd941efb3d2dd27fU, 0x3de2c8a63d8dc2ecU, 0x3e0cedd43e08c5faU,
  0xbdb6d85d3e68d78fU, 0xbd5a31553e04fa53U, 0xbe63f8b1bd88d50cU, 0xbdad2b1fbd35384dU,
  0x3d73e644bd823e45U, 0xbe0cd8cf3cc4be27U, 0x3e4b4303bdf09088U, 0xbd5ce5063b8b5c6eU,
  0x3dd43b1b3e83d5b7U, 0x3d30f9263e58916cU, 0x3cd93fb0bd644b11U, 0xbdab8d48bd93e4a5U,
  0x3d8a453e3df6e24fU, 0xbd351dd0bc9eea36U, 0x3e49f5de3dea596fU, 0xbdbbe74d3daa7bf3U,
  0xbc8e136d3e498d62U, 0x3db65f683e365f12U, 0xbe1ebb3d3daa731aU, 0x3abdc32dbd7095f8U,
  0xbcbc5f6bbc87dee7U, 0xbcd7165b3d2b5205U, 0x3d2c87193df42b20U, 0x3cb0e9debdc2cd86U,
  0xbe59b898bcdaa1e2U, 0xbd8a6184bd8f53f1U, 0xbe598ba43c9fc6bcU, 0xbe1dbc8dbe6e8402U,
  0xbd063523be21bab7U, 0xbe559e32be7330ceU, 0xbdf428bebe336565U, 0x3cae76a5bc6ace72U,
  0x3d7ac5483ca361f9U, 0x3e177d96bda299c6U, 0xbe4cfc203d3f3c09U, 0xbcbfcbc1bca7c899U,
  0x3c433f86bc5ea9f6U, 0xbd520b43bd74d23cU, 0x3d362da83d07feb0U, 0xbdb72f873d8b1184U,
  0xbda0db7d3da9a9a9U, 0xbe49fd32be088018U, 0xbe0cdc143d9b3657U, 0xbde29998be14bd87U,
  0xbd5918cc3d6f2e94U, 0xbd9a41803e120e31U, 0x3bbff5e93ddfac23U, 0x3d58b4e13cd2bc30U,
  0x3e35766abdccb3d6U, 0x3d1f627abd8dd724U, 0xbdcf4410bd02b1e0U, 0xbc8e672f3e0f7607U,
  0x3de40b653e25f7feU, 0xbd6d14473ded999bU, 0xbd9fc9aebcda2076U, 0xbdc0d29cbd385a49U,
  0xbdaace2ebd9369d0U, 0xbe201d0abd803348U, 0x3df189bdbde81102U, 0xbc8f769d3d5d0ff6U,
  0xbe1e4ecbbe094663U, 0xbdc272543d7fbdf3U, 0xbe1dd4aa3d160eb5U, 0x3c029068bdd7e489U,
  0xbe2a8a1e3dd63a02U, 0x3de9ca063e07a06cU, 0x3e1c2c4abcd7a270U, 0xbdac6ee8bd9a608dU,
  0xbd2a1e99bd4e0461U, 0x3cf1c4eabcd92619U, 0x3dbcc6d2bd73147dU, 0xbdc04693bb1b3b05U,
  0xbba27ef0bd0061bfU, 0x3ca8c0a83d41e0d8U, 0xbda371063de79f46U, 0x3e2cfd0c3cc732e0U,
  0xbafb875c3b2888c3U, 0x3d48ba093de386ccU, 0xbd6f4d563e2329c1U, 0x3c6d219cbd9a8542U,
  0x3c929e44be092bb7U, 0xbe0d50e23df07498U, 0xbd7969d33d9d2e61U, 0xbd39e0733e180035U,
  0xbd791494bde3d2f1U, 0x3e19bf133e154609U, 0x3cedb266bd4e7f8aU, 0xbd2a5822be654b96U,
  0x3d5652673db3981dU, 0x3caa88693cbf014aU, 0x3c76dd55bcf3bb86U, 0xbd9510d4bdaa7f5bU,
  0xbc0672a7be286a00U, 0xba63bb4c3e07d6caU, 0xbd215ebabddf3901U, 0x3ce182a23e2ce906U,
  0xbd3aa0283da8dcd2U, 0x3e6c43443da3dc2aU, 0x3d9b81b3bd062542U, 0x3df4de9a3db57885U,
  0x3d51b39a3e45d85bU, 0xbd1a57bd3c894830U, 0x3e2146db3deab57eU, 0x3d35e91a3d33480fU,
  0x3dac8b01bd9e143cU, 0xbe049c273b2afe67U, 0xbd4548933d4da0f4U, 0x3c15b0833d63e817U,
  0xbe1377c63d7ce7f0U, 0xbcda7385bdaded72U, 0xbe1b21173e0200ddU, 0x3d9063c6be47a107U,
  0xbd997483be29a20eU, 0xbe05509a3c60649aU, 0x3d271d67be3b7817U, 0xbddc8387bd170e00U,
  0xbe071215bdf365f2U, 0xbbd77e3d3d573e69U, 0xbddb98e3bdda8ed7U, 0xbdc8493fbd385b13U,
  0xbdd94d6fbc3b942aU, 0xbde3cda9be564d0aU, 0xbdedf25a3e16db85U, 0xbe215f8abe182cdbU,
  0x3c9c4b743db06a1cU, 0xbcf996363dbc5413U, 0xbdcffbfcbe310b67U, 0x3d26954fbd2ae788U,
  0xbe0d7bd83bf87c46U, 0xbdc3a552be074ab0U, 0xbd65b74d3dd5ba7bU, 0x3dbcd931bdc46c7fU,
  0x3e205a4f3e439132U, 0x3d0e9835be159ba2U, 0x3d5022df3de4f29cU, 0x3df996e93e1306bdU,
  0x3d80a09f3d551528U, 0xbdc027a53cb438e4U, 0x3a92e9713de0799bU, 0x3df4ac603d200907U,
  0x3e32e7613e3c5524U, 0x3d7a1e09bcade18cU, 0xbd83c7533dcd282aU, 0xbd2f61423e81b41eU,
  0x3d2e3c833d414a2eU, 0x3d8085f0be6157ffU, 0xbe1e00dbbe0093c5U, 0xbd31760dbc3ab068U,
  0x3e2fd7393d6fa976U, 0x3d8e69a1bb38031bU, 0x3cdaa8acbdaf4db9U, 0x3dc576693d08b7e9U,
  0x3d21afb3bced7884U, 0xbdaf013e3d713f6eU, 0xbe1b11053db87abeU, 0xbdda3b4fbde09e79U,
  0x3e309645bbe9eba6U, 0x3b52edc1bd559369U, 0xba86edf73de3371bU, 0xbdea3663bda8f4b5U,
  0xbcb945aa3d4f50e5U, 0x3cd1b13abd8d30ceU, 0xbd65b8533d8f37f5U, 0xbb9c5c003df378e7U,
  0xbb3aed873e048919U, 0xbd8620df3cf96efaU, 0x3dbdeff83bd88aebU, 0x3dd75950be057374U,
  0x3c89b860bd0ee9b5U, 0x3df1092dbdf838b9U, 0x3dc3d661bd098583U, 0x3db0c130bd97d68bU,
  0x3e212e8ebdb33adfU, 0x3de838893df1bc0bU, 0xbd0dfb553c663770U, 0xbbb50f25be1308c8U,
  0xbb8f3b733da685f5U, 0x3dabed373cace8b2U, 0xbe2407d03d66a233U, 0xbbe39b2cbe03b950U,
  0xbdd02e28bb6f536dU, 0x3dc7c1b3bbc38b9fU, 0x3cfc42d83d816507U, 0x3cd140eabe89ac07U,
  0xbd934c6f3e276c50U, 0x3b4ae81abc5cd852U, 0xbc72c0eabdc152c7U, 0x3d367f893bfc6492U,
  0x3da79090bd9b8cb5U, 0xbd9be7103c1a7aaeU, 0x3d7f6cb93d8764a0U, 0xbb725ad2be87476aU,
  0xbd9d7b993dbfcbe9U, 0x3e9eadf3bda929d3U, 0x3e5eece03d9d336dU, 0xbd3b3edd3dec427eU,
  0x3dc8811c3e223deaU, 0x3e31f3e13a710e25U, 0xbd60f0463d6acb87U, 0x3da0884f3e384a0eU,
  0xbd93180abd3b1ef2U, 0x3c001c893dc8b959U, 0x3e97bb563e27591cU, 0x3e28b4313db1d276U,
  0xbd7d5ae03c86c5e0U, 0x3e5914a9be7bd0aeU, 0x3d20bcf2bc7200f0U, 0xbccce5003ddc0432U,
  0x3de29957bdd2b184U, 0xbdf374193d2f0cf2U, 0xbcc3591c3e1cec77U, 0x3d9578e03dba906cU,
  0xbd1ebd693e63fdb4U, 0x3e0db3e53bf33a85U, 0xbd4e2c3f3e10d7a8U, 0xbd9ceea93ccc7ce3U,
  0xbd82822bbd2e29b9U, 0x3e0a5598bdb55ce7U, 0x3e3383debec839bbU, 0xbce87937bd3ed098U,
  0x3be4fe70bcdfe78aU, 0x3d498036be07a80dU, 0xbcfaf280bd2c7e1dU, 0x3d85da343db25fa2U,
  0x3ce05429be07543dU, 0x3e110e483ca12d45U, 0x3e2d82d3be9fd5feU, 0x3d844dc83dde4dafU,
  0xba01199ebdd8560cU, 0x3e0077d6bd83432eU, 0x3d8a7d9bbdb15405U, 0xbdf18cd6be5a9d84U,
  0x3d48cdb5bd38b1e1U, 0xbd6206983d01d875U, 0x3e4a4db8be21b6f2U, 0x3b9580373e3b01a6U,
  0x3dd1dc843db99b50U, 0x3b9d23a5be317c6aU, 0x3e257dbd3e376c81U, 0x3da3758ebe2fcddfU,
  0xbde13734bdc21f9cU, 0x3e1d5be93dece1ddU, 0x3e57e5f7bea029afU, 0xbe2df11ebe0b398fU,
  0xbe5d6102be21b6c6U, 0xbdac0d973d5772c9U, 0xbe11a07cbe4bbc85U, 0xbdd924a8bd3c5f8fU,
  0xbe4984e93bcaf729U, 0x3e1488253def45e8U, 0x3e1b6c69bebd8f49U, 0x3aff7609bd36aa68U,
  0xbbfa72e4bde1b2d9U, 0x3da8917c3d756262U, 0x3d9ce43ebcecb8c3U, 0xbdacda34be2cd07dU,
  0x3df9453dbd6b06ddU, 0x3e13a4d93ded16daU, 0x3db195cebe7ff87aU, 0x3c95bc433dc96232U,
  0x3c941521be290f9eU, 0x3db0bdd43da95b98U, 0x3d0005cdbb157ccfU, 0xbd84aef0be5d9d99U,
  0x3cec0788bd57f62fU, 0xbd4a169abd107513U, 0x3da46f02bce44ea1U, 0xbe0b44743d492d79U,
  0xba6fe553ba4fc1aaU, 0xbcfaf0f73d1fe2d2U, 0xbd8e88b9bd87d920U, 0xbda24b78bcaceab9U,
  0x3df79397bd0e02e5U, 0xbd1b0b2cbc8e5be0U, 0x3ce211e83d85abdeU, 0xbd8e6b41bd98abcaU,
  0x3d93062abdb359e5U, 0xbdd7c52f3d5fbfbaU, 0x3e5f029cbda83763U, 0xbe03c8d5bdb0d216U,
  0xbc08f2abbe0a12f6U, 0xbdf647af3e2dd9afU, 0xbe78dac63b9fac24U, 0xbdb4ae13bcb31e13U,
  0xb9ab750cbe00ec73U, 0xbd953d7e3df405edU, 0xbe5848c3bdf06955U, 0xbe2432a0bdc3fe9fU,
  0x3c47c8a2bdf822a0U, 0xbd029a743dd4bf5bU, 0x3cbd35973d0706baU, 0xbbcdc662be27675dU,
  0x3d3587febcee31f9U, 0xbdafea7e3e208287U, 0x3c81eba6bd002047U, 0xbdc02551bd7e2c2eU,
  0xbd21bdd2bd7b4526U, 0x3d9b461cbc99bbb0U, 0xbdc0bcf3bdc33837U, 0xbdc895423de42882U,
  0xbd682303bd4e0b0eU, 0x3e0829a6be0b29c4U, 0xbcdbc12bbdb8daa2U, 0x3d78c1d33d808971U,
  0x3d81dc0a3d4efe3dU, 0xbdaa3832bc363101U, 0x3c5d7d6fbcc664a0U, 0x3dae4a1abe02bd80U,
  0xbcd005083c857514U, 0x3e1b6f11bccedb37U, 0x3ccee15bbdccee8fU, 0x3db47f83bda9e6beU,
  0x3e8313cfbca9b905U, 0xbe0d0c8b3d60c744U, 0xbd98a4adbd776849U, 0x3d2bab30be504084U,
  0x3d14f1d8bdf789caU, 0x3dcf289bbdf949b6U, 0x3c787edd3db51247U, 0x3d51493e3db1e62bU,
  0x3db908b0bd55e757U, 0xbd52153abad55062U, 0xbd8ec6a5bd952329U, 0x3c188fce3e2b921dU,
  0xbe188fe43d43e58eU, 0xbe3a46bfbc8c350bU, 0x3dbc34313bafa764U, 0x3cf9fad13e757549U,
  0xbda1e16e3e4ff9eaU, 0x3c039b7fbe100887U, 0x3dfd236cbd92576bU, 0xbd5aa8f1bd314c30U,
  0xbe6a8b943e0ac2a3U, 0x3ddc3814bd81201eU, 0x3e0a685abd7c4845U, 0xbce7d1b53cfeea9fU,
  0xbcf681fc3ca45b6dU, 0xbdce5b87bde57e3bU, 0x3e51d95ebe0b7a5cU, 0xbd1beb173d9a57e7U,
  0x3c0b5b9e3e189047U, 0xbcbfcc493d8d5f74U, 0xbe1515be3c712352U, 0xbdb77676bc914860U,
  0xbdd5c2743b964bc2U, 0xbd355048be248070U, 0x3d5d9afcbdf78f98U, 0xbd11a9cdbd07d95cU,
  0xbd818e333da36614U, 0xbbba4bbd3d63340fU, 0xbdb58269be14e40aU, 0x3d07682f3d8ffe46U,
  0x3c8e78d23d9dec80U, 0x3bb09233bbe2ebafU, 0x3e2fdb7b3d3b17aeU, 0x3e1100003cfa7f5eU,
  0x3e02cd063d21d47eU, 0x3cf18a30bb9b7da7U, 0x3e03843b3d6b726aU, 0xbd7041453dab41c3U,
  0xbd086d333c8ef6f9U, 0xbd741392be86a26aU, 0x3e19ea513b9f40f0U, 0xbc6705693e3a12ddU,
  0xbd6c7bf23e4928e2U, 0xbbb03c5bbd743433U, 0xbdddb89dbe166a72U, 0xbe1000aa3caf4e4aU,
  0xbe0059d63c3a0ed4U, 0x3dba08a4be2052f7U, 0xbcfaf7f83c730a5bU, 0xbcf6862dbd0e6497U,
  0x3e4d3c08bd991e78U, 0x3e16dcb03e355755U, 0xbd443521bd717b4bU, 0xbdb7d02d3de65a2eU,
  0xbbf6912cbd99595dU, 0xbe3237bd3d755346U, 0xbccdfe363d4da877U, 0x3e361c823d661edaU,
  0x3df56fc6be2c2425U, 0xbd2c1d0c3d1190f4U, 0xbd6768e93c9dfb98U, 0xbce01759ba81421bU,
  0xbc7daa873d188874U, 0x3dbac19c3d5f2f8aU, 0x3e25cea8bd8b60fdU, 0xbcfc3954bd8d0939U,
  0xbded17e73d824b66U, 0xbd2411fa3c01aa86U, 0xbcf4de753c2e4dd0U, 0x3ca92481bd0e3ab8U,
  0xbd712ed4bdc55054U, 0xbab984f3bd604e99U, 0xbd62f520bdba55e3U, 0x3d4307233dc44680U,
  0xbdb6d35c3cd07f28U, 0x3df7a261be012685U, 0x3c8480953d80e767U, 0x3d8dc0993d0233a7U,
  0x3dfefc5abc9a2efcU, 0x3cd6a4723c186687U, 0x3dd9028dbd160d12U, 0x3daea1f1bde53ffdU,
  0x3dfbe803bdb7251fU, 0x3dbc61a7bd1599a9U, 0x3e5b9c45bce16607U, 0xbc928a3d3d604678U,
  0x3d26ec963de4adebU, 0x3e2480ad3d8ef9d0U, 0x3db084cfbdc24144U, 0x3d896348bdf13eebU,
  0x3d41729abdb26342U, 0x3e0cc259bd81f0a6U, 0x3cf942a93de57612U, 0x3e3957963e128b61U,
  0x3d949bbe3d40b219U, 0xbd0893823e208541U, 0x3d7dd2253e2c86efU, 0x3d7fed52bbc734d7U,
  0x3c259977bdbf3dafU, 0xbd52c7aebdbd0773U, 0xbb6e85bdbdb4d9dcU, 0x3ce7bbdebdac2cb6U,
  0xbe1844d4bd84fc4dU, 0xbd2167b8be08d93fU, 0xbd8d1e35be228c0dU, 0x3d437f1bbb8123b3U,
  0xbc6ce359bd4cdcf2U, 0xbe208bf3bdb0ed48U, 0xbe3821b2be04db51U, 0x3dda6acd3d90eca2U,
  0xbd8d5bc23d343472U, 0xbe02305cbdd7ae5cU, 0xbde66195be0f32cbU, 0xbdaf18793d7573c8U,
  0x3c7350503d7b77dbU, 0x3de8c8c2bd099b6aU, 0x3e30b5903d6db4b2U, 0xbd2f9bfa3dc58097U,
  0x3c0a93fcbda500abU, 0x3dca72cdbe15144cU, 0x3e3ec5adbd9f9ec8U, 0xbda39765be19f84aU,
  0xbc0ad0593d999211U, 0x3e32e1d23e272f36U, 0x3c7aa060be28d2e5U, 0xbc2c642b3c5c0466U,
  0x3dd30cd2bd0d39fcU, 0xbd201f883d8b5f68U, 0xbcd1783f3ce5589eU, 0x3d98f1083e6ca85cU,
  0xbd77a4eebe19df6aU, 0xbd5baa363df59da9U, 0xbca6372bbd3874b3U, 0xbbfc883d3db01f88U,
  0xbdbca2e7bd7b8625U, 0xbcc651d63d298d3dU, 0xbe18466abe15a500U, 0x3d9c84183c919d68U,
  0xbdd689e1bdde5219U, 0xbdfab6a5be20ca65U, 0xbe232785bcb13c3dU, 0xbcd9f396bda10cecU,
  0x3d2c3e9fbe1044b4U, 0xbdaade4abdd04ed2U, 0xbd62ecd9be0ae412U, 0x3d2fcddfbd94313bU,
  0xbcdff893bc66b165U, 0xbddc560cbe259ff2U, 0x3cab3ffe3ce9c655U, 0x3d0c47f6bd3a159fU,
  0x3a9512373c76dcebU, 0xbc4cb7233d0fca9fU, 0xbd790b8dbd1e532dU, 0xbe1ee7debd8431f7U,
  0x3d3ac52bbc5391faU, 0xbcbf01a3bdcc08a7U, 0x3d214e15be0565f4U, 0xbcc6f71abd8f09f0U,
  0xbd6500643dd679b4U, 0x3df766d93bc8fcbcU, 0xbe42717cbe23a831U, 0xbd8bcadabcfbc7daU,
  0x3dda9d403e1f4a41U, 0xbe2f15d2be29c613U, 0xbdbd40c9bc576a6dU, 0x3e54e0c93e9b8790U,
  0xbd5cecc4be350e4fU, 0x3c35aae23d38974aU, 0x3c6e57d2bdbd0a6aU, 0x3ce9e2c43cc4c127U,
  0xbdccc2abbc4d9a4aU, 0x3e48d5d83e07bd3fU, 0x3bd29b76bda89bccU, 0xbd956210bd055679U,
  0x3e57b8193e0b2168U, 0xbd0a4551bda45a55U, 0xbe3244e53ca1c353U, 0x3de7b0693e0c06b9U,
  0x3cc4721e3c08ad22U, 0x3cf387913d6a93baU, 0xbcab2906bdea99cfU, 0xbca72567bcd8144bU,
  0xbd91c1d23d8dfc07U, 0xbdbb2950bde3435bU, 0x3c62f9d23da1f6faU, 0x3dad8c65bcb506f8U,
  0xbc6e08333e32d2c5U, 0x3da0a8fabe4246e0U, 0x3e36a1643ca50c28U, 0xbd84cf7abc9a35eaU,
  0xbcd4f2f4bcf2a357U, 0x3e035e4bbc2cebffU, 0x3d0b800bbdb6b140U, 0xbd0ce7d7bdce1dd5U,
  0xbdd5b081bd233bdfU, 0xbc781d01bc159e65U, 0x3d82d1cd3cdb3739U, 0xbd0df1f23dc2cc3dU,
  0x3e20b806bad5413dU, 0x3c0fc69abd99fd4eU, 0xbdc29a0fbd61b928U, 0x3e08e0973e969100U,
  0xbe4f2d28bd378aceU, 0xbc3f6058bd4598c5U, 0x3d9c0e95bde1eeaeU, 0xbd38a3b7bd9d9064U,
  0xbb3cfd48bdb38537U, 0x3e1579563d7a1ae3U, 0xbcba0580bbf47e9aU, 0xbd95565b3d4e6365U,
  0x3ea575cd3e093a8aU, 0xbcead73fbdcfc29dU, 0x3d17b64d3e1af84bU, 0x3dcc65743dad0205U,
  0x3ca8b859be35320dU, 0xbd4cee1d3d8573c5U, 0xbcc398f6be27e8e1U, 0xbcd1ee263d9afc41U,
  0xbe43201fbdbaf76bU, 0x3d4840e1be141796U, 0x3bb57900be0d42ccU, 0xbd5b5466bc443299U,
  0xbe0038b13c9e8e48U, 0x3c99b131bdb04e50U, 0x3e1f2a6fbe4818f5U, 0x3cf7c0d2bbb2cd12U,
  0x3df0ab30be01f338U, 0x3c8efc0ebc3d3349U, 0x3dc76a3dbe421490U, 0x3d591157bc9e7c7eU,
  0x3db813423db57002U, 0x3cf6558e3d836a49U, 0xbde7abf6bdccefbeU, 0x3d8f1a2cbd2c7f95U,
  0xbc3cafc73df9479bU, 0xbdab1a97bd84c0d9U, 0xba1d5a923c2f1eb4U, 0x3d4f9b843e62b1adU,
  0xbd793b98be207160U, 0xbd07e819bd987c3bU, 0x3da61f203d1b4fcfU, 0x3d250be3bab4767cU,
  0x3d6aefbdbdaf158bU, 0xbc57fbfc3c776055U, 0x3c6e691a3c0440c6U, 0xbcba8a87bc1cecffU,
  0x3e69b669bd0ca5daU, 0x3e02d146bd16bafaU, 0x3d861e29bd014417U, 0xbc6fdeeb3d6e57c5U,
  0xbe2c6527bcea701eU, 0xbe254ecd3e3dbc0cU, 0x3e06cb433c25222aU, 0xbd71c6103e03fe52U,
  0x3ce02bd33d640b43U, 0x3d90efa6bdcb3984U, 0x3d81aab9bdffe6d3U, 0xbc3f0eaabdc9f4a5U,
  0x3dc99e72bd5f8f5cU, 0xbc3acf5dbd53d97dU, 0x3dabe8343c910be7U, 0x3cd3971a3cc85336U,
  0x3df3e8c13bfadc46U, 0xbcc2273b3dbbfe13U, 0xbd1aea94bddc4ca4U, 0x3da2b5a1bda991b4U,
  0xbd1be943bd892920U, 0xbce2d3e43d7c1ff7U, 0xbdaaad743d4d0e31U, 0x3da84a52be0a0583U,
  0xbdde20d43c6c7b7fU, 0xbd317102bca74fffU, 0xbcb85e113dc5380cU, 0xbaea7b023d8087e6U,
  0x3e0bc9bbbc6cb513U, 0xbdcb956cbe0dce01U, 0xbd11cb173cd9f618U, 0x3e06d2c03ce0907eU,
  0xbd83cbbcbc7b4877U, 0x3d927b5bbdd3c507U, 0xbe09cd14be0daac9U, 0xbc57552b3d44a6fcU,
  0xbe00fcc73d726395U, 0xbd80b5c83d0d6bc2U, 0xbdd63e0dbd7b244fU, 0x3d6b77293d880a1aU,
  0x3db98df23e1551daU, 0x3e0e0da13d2c3454U, 0x3bba530ebe5db2b9U, 0x3dcd3083bdefbbddU,
  0xba129134bc53e2d4U, 0x3e2f02a53d8d6fd9U, 0xbca0bf373cf40112U, 0xbcaeff0dbd2760acU,
  0xbd92f7c8be1ba8a0U, 0xbde4889b3d425e9dU, 0xbca14e05bccd8989U, 0xbc5a5b763dd709dcU,
  0x3de6039e3d6e13c2U, 0x3e1375cf3d6d5572U, 0xbdc0dcabbe44e0dcU, 0x3df7ad153d9a91fcU,
  0xbb85d67bbdc93fc6U, 0xbd8eb42d3d1e9a13U, 0x3e072a16bdc9abdeU, 0xbd7cff483b83e45eU,
  0xbd69179e3baad9daU, 0x3cacb98dbd038a91U, 0x3e01e385bdb360eeU, 0xbc90a6a3bd9dc720U,
  0xbde036acbc42217aU, 0x3d79b0783d6e7bdeU, 0xbbc0f49bbe1ae033U, 0x3d5aaeef3dbe4bd2U,
  0x3df2d693be0c5e71U, 0xbd75c585bd75c3c5U, 0x3d2ca2273e0eff58U, 0xbd672d183d5a88feU,
  0x3de689f33cd44c20U, 0x3c8292f83eb4c793U, 0x3c8806603dfa80d5U, 0xbc8446a8bb8d55eeU,
  0xbe2174f7bdb4b047U, 0x3d502d3cbdc7ef65U, 0xbce1a41fbde27815U, 0xbe1c0c41be0aced2U,
  0xbc6dca56bccbaab6U, 0xbcef4d4dbcb16001U, 0x3d26aa723d98ac2bU, 0xbe1084aebe223894U,
  0x3df32cc1bc9dd200U, 0xbe2afdba3e0381ffU, 0x3da1a65a3e0cd75bU, 0xbd2f376a3d6c947bU,
  0xbcd1af09bdf26406U, 0x3b8fe8ccbdb11040U, 0xbd4e76ccbdd9e17fU, 0xbd411f8f3d3be00aU,
  0xbcbcabcabc8c60b2U, 0x3dfab650be3d3ec3U, 0xbbc3233bbdfe1094U, 0xbb22d0cebda93c66U,
  0x3a4fa1b63d936eb2U, 0x3d1ad293bda423c2U, 0xbb893046bdd38b65U, 0x3d9e2ed8bd0cc37eU,
  0xbda5d3d13c4f9372U, 0x3db629b6bde0cf75U, 0xbc1427413d28a314U, 0x3da69242bd99961bU,
  0x3cd6e07b3d891e83U, 0x3e047441bc6308b8U, 0xbe5e52c33e1fc963U, 0x3ddaf8aabeaeccb1U,
  0x3d5ca5c4bd5375f6U, 0xbcb0ae0cbe459e40U, 0x3d172fc0bcdc1120U, 0x3d9ded1abdab0ad9U,
  0xbd982b3038a4a7d8U, 0xbd785806bb19c8a7U, 0xbcad067a3d3fb1dbU, 0xbdc6f8393c8127cdU,
  0xbdd6b70c38fb7a01U, 0xbdf9f86a3d653315U, 0xbda66c0c3dfcae85U, 0x3cc92058be86de03U,
  0xbd3ad1053dc3fbd9U, 0x3e0a8dc9be049915U, 0x3da7769a3de61df7U, 0x3d1c76bdbb3bfde0U,
  0x3dcb133d3b9be64cU, 0xbe4402ce3e00a359U, 0x3c55bfcfbba620cdU, 0xbd3e18143dd3b177U,
  0xbd1fcdcfbc2bdc0dU, 0xbdddaec43c91097cU, 0xbe16d6a83e32a90fU, 0xbb510d913c6f705fU,
  0x3d8da4423d9189a5U, 0x3cca2989bdaed504U, 0x3e28cb353dde29fcU, 0xbdea94b83d26d147U,
  0x3dcfcb1f3b5dc3b2U, 0xbdd480df3d025f4bU, 0xbcc698d63d5d70b5U, 0xbd6d97c7bd183085U,
  0x3db5bb9db8c374cdU, 0xbe115930bdd76e55U, 0x3d14f7a83da8d25bU, 0x3d4dc9d5bdb6e236U,
  0x3d7a91023da70c3cU, 0x3de519413d8810b4U, 0x3df3797abc6c903fU, 0xbe19d56bbe6eb6b0U,
  0xbcce13ab3e03d32fU, 0x3dddc4333b2a3975U, 0x3d8fde62bd1487ccU, 0xbadc3491ba80f88dU,
  0x3bacd80b3b1d8e18U, 0xbde8947fbd47fd58U, 0x3dec2fd43d51fa10U, 0xbde04a4fbdb947aaU,
  0x3e3b7ef83d33248dU, 0x3dcf158b3d8f54fdU, 0x3c28f4253d9de3a0U, 0xbc2f98173cc7724aU,
  0xbd8f3b2fbdfdbfd6U, 0x3b85c857bc956b05U, 0xbc8f0c793cc11533U, 0xbe00daeb3d6e2a1bU,
  0xbe3639e9bd66c79fU, 0x3df8028e3def495cU, 0x3c8345f9be232d5fU, 0xbd844eacbe423ba0U,
  0x3d5060723c8cff81U, 0xbd1c4972be785f13U, 0xbd7f09af3d9b3821U, 0x3c726c4bbcd266abU,
  0x3d1dc702be2f20e6U, 0x3d4657863db8c2c1U, 0xbe54315dbd95b33dU, 0x3d90d63f3bf417c3U,
  0x3d2ead2a3dcc4a67U, 0xbd1591f03d8a8642U, 0xbdc3c91abcd0d254U, 0xbd3e19edbd100859U,
  0xbdb920aa3d88f5edU, 0xbdae89683d53f589U, 0xbd941b80bd7c16f5U, 0x3cbfb6063ba3fc0fU,
  0x3d5e00c13d873415U, 0xbd50065c3c8ab3e9U, 0x3d8a4548be76a9c5U, 0x3d2db7253d217221U,
  0x3d08c1de3b75ce42U, 0x3d4e3cef3dcf84e1U, 0xbcee20883c86cb5fU, 0x3d384e62be0c937aU,
  0xbd7752743b2b82a4U, 0xbd67b8673bb246ccU, 0x3e0ac7c33d8caf6eU, 0x3d3d34b33d8e4434U,
  0xbdabf3d4be472a76U, 0xbe51a5f6bd31e498U, 0x3d919dc5bd2f9a3eU, 0xbd8002303dc11b2eU,
  0xbe801088bc160caeU, 0x3d69fe9abe16b61eU, 0xbd9fa62b3d436cf0U, 0xbce680733e182c89U,
  0x3e2db9423e172d56U, 0x3ccd1a79be546910U, 0xbc7c46593d7fc017U, 0x3de3401fbc816f3eU,
  0x3d995f81bd12745eU, 0xbd9856f3bc2950beU, 0x3c61ab60bdcca959U, 0xbdfc64e6bd32bab3U,
  0xbce01b9ebdd27df7U, 0x3d360a8fbe1a600eU, 0xbdf41297be2327e8U, 0xbd97a0953e217fe8U,
  0xbb4807713d62f8c8U, 0xbdea185e3cfcb7e6U, 0xbd5b66e3bdc1282eU, 0x3d03ac2bbd82dd5cU,
  0xbc6522113dc0a8e8U, 0x3df95702bda55256U, 0x3d243ec0be35fec3U, 0x3de00423bd4b63d2U,
  0xbe4bb1fdbccfd1e5U, 0x3e58290a3d48478cU, 0xbca07cfbbcab841cU, 0x3d50729cbe02d6d6U,
  0xbd9302b0be727eb8U, 0xbde69ca2bd9f990eU, 0xbdab4188bc60ffecU, 0x3e62cf53bd230a5cU,
  0xbe1bcb763d358358U, 0x3ca005623d3c368dU, 0xbd6dddf4bdc39b27U, 0x3dee68203b893338U,
  0xbcf47cbc3d7c6c42U, 0xbd46d296bddb4221U, 0x3d8d55243e002a66U, 0x3cdb627ebb965ba0U,
  0x3d8e31453e42bf56U, 0x3d9360bcbe02be90U, 0x3dd60e053e11ac87U, 0x3d832a853e099c3fU,
  0xbdb67676bb8d269dU, 0xb8cf40143c56e2cdU, 0x3e63e496be37e224U, 0xbdfa676cbdd92108U,
  0x3e06cab83e018d70U, 0x3a1965da3dd109afU, 0x3de5fbfc3de8534dU, 0x3da6a43b3e190f2aU,
  0xbd83fb90bc1d865aU, 0x3d329ecf3db104c5U, 0x3db79bb0bd4a5932U, 0x3dfbb5ed3de91741U,
  0xbe1aafcc3df16611U, 0x3e090ea1bd0eccf2U, 0x3e4085e63e177d05U, 0x3ccc954d3dc48e55U,
  0xbb076235bde00b20U, 0xbe2065163d27e451U, 0x3e1a5075bdc3f399U, 0x3c470a6d3d08dea6U,
  0x3e121fab3e090825U, 0xbdab5e61bd5f9beeU, 0xbda34ddbbd9683c5U, 0x3d22ea6e3dbf2756U,
  0x3e5e778e3dc0386cU, 0x3dbf2833be056b9eU, 0x3deed258be36ff12U, 0xbdecc1653d0e9f7fU,
  0x3dc0a75abd6a9e4aU, 0x3d8edaa03d6e3129U, 0xbce86cb23d966fb4U, 0x3c0737ebbe73db00U,
  0xbdbd6b99be051668U, 0xbb13d7f7bdefd3bdU, 0xbd1ef409bcdad9ccU, 0x3db7108fbd8bd4f2U,
  0x3d2570adbe084435U, 0xbd98e53bbd4353c7U, 0xbe68fe8c3d1bc109U, 0xbd0472d43d1afff4U,
  0xbb79d9c4bd7fccceU, 0xbd90fae43dae690bU, 0xbdb039f1be03ae66U, 0x3cb3205b3cd3e095U,
  0x3cdab5b83d9ff07bU, 0xbdb73f663dad68ecU, 0x3d8a1dc1be3a96efU, 0xbd8d43153cf37592U,
  0xbe3559c23d254cbdU, 0x3cc224c9be68f742U, 0xbd61897cbde1a7d0U, 0xbd506c8f3b35055fU,
  0x3d3d84513dbc5bb0U, 0x3d29c2a7bcaaf3beU, 0xbcaeb812bd8784fdU, 0xbb71aff5b8a0ebffU,
  0xbdc8c7af3e2b6241U, 0xbe2b0af33d490c05U, 0xbd8dc05cbe35991fU, 0x3dcdfcb3bbbbfdf2U,
  0x3e55b870be26efcfU, 0x3d015b54be6a1033U, 0x3db3a8cabd47fa26U, 0x3ce36643bd8271deU,
  0x3d947b943dac6a87U, 0xbd0778ae3de3d13cU, 0xbe241724bb1c1546U, 0x3d53e44dbe3442b0U,
  0xbe25f5febdaa7200U, 0xbdde6462bdf9c399U, 0xbc7c4bc2bdb5c0a6U, 0x3e0bcacc3da9557eU,
  0x3dde42dcbd81771cU, 0x3d0d4852bdc42198U, 0xbdc2d780bd549b58U, 0x3dde7b2abd37ea44U,
  0xbde037cb3cb7a654U, 0xbca5ff77be24ab44U, 0xbe280be1bd80e822U, 0x3d18d344bdc7e4a8U,
  0xbde74fa93de0e4daU, 0xbdbdf415bdd0dcbdU, 0xbd295d13bdd6470fU, 0x3d131cbfbc0f823cU,
  0xbd19e8e4bd8be0b9U, 0x3c9ca5d5bdf525b3U, 0x3cf11289be025c24U, 0x3dab7dfabdb2cfa8U,
  0xbda7178abd3faeffU, 0x3df4cfa5bd3175abU, 0xbda666263c8ac13fU, 0xbce6cf0a3d9c16dcU,
  0xbdc32ce13e194870U, 0xbdefbb0ebde06c3fU, 0xbe62342ebc51235eU, 0xbd8026423cda40d9U,
  0x3d11d41e3d6aec03U, 0x3d85132abdf05731U, 0x3d2b2cf4bdbb5d8eU, 0xbba21fecbca279d1U,
  0x3da7684e3b743c95U, 0x3d785b253da33635U, 0xbe10a040bd8ba807U, 0x3d7cd97ebd8e4462U,
  0xbdfe36ee3c8e999dU, 0x3db1b888bda98cf0U, 0x3db604263d0c3319U, 0xbcb72e95bc32c362U,
  0xbd1db0cf3d99cfabU, 0xbd1d56313d868661U, 0x3ddaefc4bcd576e3U, 0x3d0fded33a1a600dU,
  0x3da735aabd922e50U, 0x3e11c0703d3765a8U, 0xbd35209dbdd3784aU, 0x3c88ba953c04d2ddU,
  0xbd88f50abe4d47cbU, 0x3d909ed9bdde556aU, 0xbdcdfd56bc59a0f7U, 0xbd22111c3cadbe0bU,
  0xbdca628f3e1329c4U, 0x3e09af6c3d5fbef9U, 0xbdbb49acbd56e043U, 0x3db090c93dcb1d5aU,
  0xbe095cbbbcd83dbeU, 0xbdc1c8543e1a5b2cU, 0xbc3781073d640ea2U, 0x3dd65f55be45be8cU,
  0x3d250cd9be43ddfeU, 0x3cf46659be6288f6U, 0xbe0ce3ff3d016745U, 0x3d9cb0f0be218329U,
  0x3ace3841bd048ae6U, 0xbd94a8243ded0c69U, 0xbdcbd3abbcdb9835U, 0x3d67ff55bb05c565U,
  0xbdfed4fd3e083419U, 0xbdb7a2793baa42b9U, 0xbdad5a973d0c658eU, 0x3dc59ab6bc2d0695U,
  0xbd923d25bdee97afU, 0xbd0528fcbdf386c0U, 0x3db90ec23e1275a5U, 0xbe0b8c94be4834bcU,
  0xbe27d44dbe05399eU, 0xbddab76ebc9b2e1cU, 0xbcf3892a3d88e654U, 0xbd8a529d3e1872c4U,
  0x3b811df1bd97124cU, 0xbd3496fdbd2bdff0U, 0xbd151c103e3e9b20U, 0xbe0937ba3dc991fdU,
  0xbd78ffaa3e395633U, 0x3c569f663e86a1d9U, 0x3e1f264fbbfe7c77U, 0xbe2d8a0abe4db1a9U,
  0xbdc1f9bfbd289861U, 0x3def681ebd64047bU, 0x3e07f528bd6e368aU, 0xbccd08febdedec2aU,
  0xbe4f7d693cad5c08U, 0x3e3e154cbdce60ecU, 0xbdd85c1bbd84d2bfU, 0xbde59837bdf476f5U,
  0xbd216965bba69fe6U, 0x3ca0f6933d85da14U, 0xbdf9b40cbdcf351fU, 0x3db7ecd13c81d6bfU,
  0x3d8e8ad73e05c6bbU, 0x3e35e80cbdb27065U, 0x3cbcbf0fbe81a4ffU, 0x3d6e4cbcbe0e437aU,
  0xbe2b664a3c3d55a4U, 0x3d93a134bd8a3657U, 0xbdd47612be28a2d8U, 0x3da7bbccbe62b8c5U,
  0x3c1edf29be2de469U, 0x3ccd7e62bd46d695U, 0xbe057e773d408decU, 0x3de6bca23d800c10U,
  0xbdb130a33d888e8bU, 0x3d2f8e153de98c82U, 0xbdfbe7d2bd6ead27U, 0x3d23ab5cbd1ad3aaU,
  0xbe363e553c93f716U, 0xbdf1f6f3bd32d792U, 0xbe3a3a663e17f9dbU, 0x3d755236bdc1e4ccU,
  0xbe11c5953e066ce1U, 0xbd4025b9bc9a6d48U, 0xbd80e66fbda85a03U, 0x3d3fd9c23c0e7fa1U,
  0x3d3cc7043b83382fU, 0xbd8832033cbb3e72U, 0x3e68ab4b3db7d856U, 0x3dd2c5c2bc22a05dU,
  0x3b5ec443bd222809U, 0xbe13e3f9be09d155U, 0xbd9e913b3e2c4b29U, 0xbdc916a43e00525bU,
  0x3d8524533e6f54d0U, 0xbdb4251d3d4abfb8U, 0x3e098b833d210a23U, 0xbdf1a1e13db7c0c0U,
  0x3e17ce57bd06545fU, 0x3bbdbfcfbc3ccd23U, 0x3e5a8de8be086b16U, 0xbde88f7ebdb76d13U,
  0xbe13d3bdbda55bb0U, 0x3dc99ad23dca18ceU, 0x3d7a2435bd92776fU, 0x3d64bb743d6833ebU,
  0xbc6d2f13bd017c2aU, 0x3d7e1bf43d5ad29cU, 0x3dd6b82f3dc95e94U, 0x3e04cebd3ceee145U,
  0x3ae72327bdf5d216U, 0x3ca316b0bce88d0dU, 0x3deac0563d2a6cd4U, 0xbd097225bd60f441U,
  0xb9d233cc3dfaec9cU, 0x3d05aa1e3c45fdc0U, 0xb94957a3bdb9370bU, 0x3cc0db46be841d1bU,
  0x3e1ff33abe2d8262U, 0x3e2d41d7bd0ec54dU, 0x3e35f4243d920275U, 0xbcd33d41bd88b49eU,
  0x3e74d9663a917378U, 0xbc4719c63dd3a17dU, 0xbdceab2e3d5e1bcbU, 0xbdb57a463d404f72U,
  0xbdef447b3df734dcU, 0xbc489b83bc2dd7deU, 0x3e048145bce1887aU, 0x3da5b7f3bca11530U,
  0x3db52ec5bc8a7339U, 0x3dc45cf6bdc78424U, 0xbc47df31bcf97de1U, 0xbbdbe46dbd2fa804U,
  0x3d0efb123d58aea8U, 0x3df27e933cd13df5U, 0xbe0fa12bbda6d7eaU, 0xbe0084b2bd8b56a4U,
  0xbcbf8c99bbf9ad65U, 0xbce36ee23d88e2deU, 0x3e1974c2bda8dc14U, 0xbd2ecf123e019341U,
  0xbda7b6373d39ee41U, 0xbcb23b97bdbf2413U, 0x3d6ac2cdbd743b89U, 0xbcfa34013c93fff6U,
  0x3da35874bd982143U, 0x3df0079dbdf32de9U, 0xbd2485b4bd337907U, 0x3d12b779bc2ee8c6U,
  0xbe627d193ca1f3b1U, 0xbda02f67bd230da5U, 0xbcc3115e3db08fb8U, 0x3d4f0b953bfb84a2U,
  0x3d5dc4ab3e5c617eU, 0x3d426248bea09564U, 0x3db6a9c53e0b812eU, 0xbe173856be3d7b3fU,
  0x3e4684883db1cf44U, 0xbc67ab9b3e6c4a5fU, 0x3e7ce2463d9509a9U, 0x3bae89ca3c8986daU,
  0xbdae3d1f3d583605U, 0xbde0daebbdd1f692U, 0x3d8d605c3ba2591eU, 0x3d824b3d3dd3151fU,
  0xbd0585f83dbbdf81U, 0xbd634d37bc0d5230U, 0xbe3491c4bdbef7b1U, 0xbe1f67abbd93dd2aU,
  0x3e106a3d3d8f9401U, 0x3cbe84303d40bdb9U, 0x3d8b7e57bdc146a4U, 0xbda8e32ebddba7f4U,
  0x3e604738bde20596U, 0x3cd9a1ebbd43417eU, 0x3d6089f83c86d30eU, 0xbd80975b3d1256b7U,
  0xbdd29b57bd0455aeU, 0xbe1d07643c483982U, 0xbd9748fd3c0f4bc9U, 0x3c912273bd641529U,
  0xbd1e40b8bdcbbbd4U, 0xbd851081be08c775U, 0xbc415b68bd1e35fbU, 0x3dad44bebca2b42dU,
  0xbe40eff83cff027aU, 0xbe0782bbbdd2e28dU, 0x3e22f1b13c503ff8U, 0xbd0840fa3dc22795U,
  0x3cadf2023e520dc1U, 0x3e2d36c2be33f187U, 0xbd531708be5bb2c1U, 0x3c660b203d88bef8U,
  0xbc036663bc75d04cU, 0x3e0fba273d19d9e6U, 0x3e2f299f3dc725f2U, 0x3bd067a3bdb8ebf7U,
  0x3e0c932bbdbc8844U, 0x3d01a1afbdde7072U, 0xbdae6b1e3dc8c1feU, 0xbd1ae99dbddf1fb6U,
  0xbdefb2383ced4ea9U, 0xbd19ea33bd7c0813U, 0xbdab277fbdaba855U, 0x3c9b991f3d994fa7U,
  0x3e4bb07cbe1c2f2dU, 0xbd4fbe60be3f2390U, 0xbd4f99b9bd0c2244U, 0x3d6d6428bdd1d304U,
  0x3e4bbad0bd95fc2eU, 0xbbc4e9de3cb5201dU, 0xbe87b1353d706c96U, 0x3e01e424bdbf965dU,
  0x3d0a5811bdb56fceU, 0xbdfce030bd72f121U, 0xbbeecdd43d7441b1U, 0xbd58b2cebdab40abU,
  0x3dfda3fcbd0a8778U, 0xbd71921abe3ab588U, 0xbc0251ecbe0015feU, 0x3dbf74a83d67c26eU,
  0x3ce48b823beaa7e4U, 0xbe06eb923d9455a3U, 0x3dc4d054bcc251e9U, 0x3d1553c1bdff962cU,
  0x3da7913dbc661a24U, 0x3e00eaefbd94f93cU, 0x3dcfc5e13da6e6a4U, 0xbe2c08103d41aa29U,
  0xbe083b5bbd1364b5U, 0xbe5672a33e6fde0eU, 0xbd4368833e0596a6U, 0xbe4aa0163d91a94aU,
  0xbd8541003c414f1bU, 0xbe2daf77bcd13b1eU, 0xbcdb353fbd7a0ed5U, 0xbd2ce0fbbd97d959U,
  0x3dee29d7bdd416daU, 0x3db05b9cbe2fef63U, 0xbd8e421d3d604f4aU, 0xbd1757a3bd9f7b03U,
  0xbc538c80be8a481aU, 0xbe0b530f3e03ef1cU, 0xbcbe358c3e027591U, 0xbe3d164e3ca489f8U,
  0x3dc01dca3d48810aU, 0xbe01606e3d403afcU, 0x3cf0db66bd25dfe1U, 0xbde4c0f8bdb46729U,
  0x3c8a8e61bd2c418eU, 0xbc0b5633bdd90793U, 0xbdb7ecd8bdf42ef5U, 0xbd337c6cbe2fef2bU,
  0x3dda685cbe92660fU, 0xbe8e9ed83dae2a6eU, 0xbdcb8f4b3d654982U, 0xbd92d8bebdae2b8fU,
  0x3e2ebc4cbd124539U, 0xbdb64362bca09ca5U, 0x3df7118a3d49e254U, 0xbd0d31813cde1a3bU,
  0x3bd00dd53c87a161U, 0xbbb879723e55f311U, 0xbdffbb24bc4e3207U, 0x3c048d0dbde2c50eU,
  0xbc88ff8d3e0bd616U, 0x3dcbd8753dd00f55U, 0xbe469e6cbd08bc51U, 0x3b60552fbe0367f2U,
  0x3df2b09e3d34bf5bU, 0xbdca39bfbcfb60c2U, 0xbd3a0e533dd12782U, 0x3d994216be6beda1U,
  0x3cf33668bdcdd5beU, 0x3cdd85c03da2c38fU, 0xbdad2238bd330aecU, 0xbe00c656be26f6edU,
  0x3e232893bbdaefcaU, 0xbdf174f9bc4e6341U, 0xbe692d5ebda5de20U, 0xbd32d77fbd8dd781U,
  0xb9bacf48bddb6360U, 0xbd46ac4f3d0f55efU, 0xbe06cb76bd517e6eU, 0x3df64cafbe545e6aU,
  0xbcdf1a6ebd06a558U, 0xbd9a4b383e42ed24U, 0x3d2aa1763dc46cbcU, 0xbda05f31be8b4a2fU,
  0x3d5949e9bd7062a8U, 0xbe0158fdbdddabedU, 0x3d470624bd2d716bU, 0xbd1af8f93c68dea4U,
  0x3e41ee333db83fa7U, 0x3db952d03c6f6700U, 0x3d20cd3a3de93f60U, 0x3c313f93bd937659U,
  0xbd37a159bd888b0bU, 0x3ce963493e7244d1U, 0xbd7c2f463da3b216U, 0xbe0595c03d883d2aU,
  0xbdb6734f3d66a472U, 0x3e60fa2fbe22c1ddU, 0x3c877b6bbe7b1e61U, 0x3e295d22bcd46c10U,
  0xbd8d3b623d9f9955U, 0x3d9191a93d063a31U, 0x3e208c1fbddb9763U, 0x3c0449343d5d56c1U,
  0xbe1e0f48bcc3e8baU, 0xbdafede03e505e88U, 0x3d2df339bc34342cU, 0x3d531146be21e294U,
  0x3e5e29353debdb41U, 0x3eb80297be02bf95U, 0x3d363e48be44b9e5U, 0x3dec9e733d918eb0U,
  0xbda3776a3dc39a52U, 0x3de1483bbe11f294U, 0xbd2f409b3dd0b969U, 0x3bb24d3ebe022dd7U,
  0xbe5f47f1bdcf4f5fU, 0xbe0889b23dda3a70U, 0x3dabf23b3d919bc5U, 0x3ded991cbd50e20bU,
  0x3d5d8c643d8a55c1U, 0x3e1997ddbe6d99a6U, 0x3b95f330be12c6dcU, 0x3e6820c53cbd172dU,
  0xbdbf26aa3dfdaaddU, 0x3da5fb2bbd32103eU, 0x3d28eacd3dd09793U, 0xbcbfb9373e87dbe8U,
  0x3e1736323e5c59efU, 0x3d3a45adbdd06864U, 0x3c979a6f3dbc38faU, 0x3cffd8bc3d6069adU,
  0x3cb0b051bc9aaa21U, 0xbcffd1f43e007bcdU, 0x3e4d55af3dbfd317U, 0xbbfaad0c3d231b21U,
  0xbd0a9617bcbc7f0eU, 0x3d917b4cbd9e2e6fU, 0x3ddca0f2be11a608U, 0xbdcd49703d8b4207U,
  0xbd9e591fbccc698cU, 0xbde2582ebd1a6d9cU, 0xbe7a36b7be4da7abU, 0xbdf2dfa53ca68719U,
  0x3c7f74193de33af7U, 0x3dd1e3903d79437dU, 0x3d45f8573cd67befU, 0x3d5a2f34be3b21bbU,
  0xbdd0081d3c14c75bU, 0x3b3c8c6ebe1d0b39U, 0x3e2f7181bda79ac3U, 0xbd9147083e2e9470U,
  0xbc364bd43d87acd8U, 0xbb67168a3d0d6437U, 0xbdbdc71bbd1f8dd6U, 0xbd0d820cbdf2d6ffU,
  0x3e5a1669bdbd4f58U, 0x3dfda329bc92fc25U, 0x3cec62d03e0eaaa1U, 0xbd950721bda8d2b5U,
  0xbe93551a3df63207U, 0xbe0deabbbe82e342U, 0x3e6cad6bbd89e4b9U, 0x3d066d933e091498U,
  0x3e1dde413e7d0350U, 0x3e1c5e1ebdb4aeaeU, 0xb9801d7abe464ee4U, 0x3d18d4aa3da2388dU,
  0x3e0cbe443e17f0f7U, 0x3de3aded3caf2128U, 0x3e36a7963dd2078aU, 0xbde21626be15af32U,
  0xbdf8cc80bd849b7cU, 0xbd9e4683be6786afU, 0xbdf34ccdbe414640U, 0xbe5a8143bd1adeeeU,
  0xbdd70fd1bce8a365U, 0xbdf8eb9bbda38564U, 0xbdc81bbfbe006d8eU, 0xbdedecdcbe213b00U,
  0xbc5c6daabe3184b2U, 0xbe0458aabe3a8a6aU, 0xbd8b11123cdff561U, 0xbe4a04d9be4696e7U,
  0xbc293415bd903ac7U, 0xbd93a801be096877U, 0x3a9c0374bd8e95fcU, 0xbdcc7858be611ebaU,
  0x3cda7c09bd648c17U, 0xbda240893dec1b01U, 0xbe4680f7be0afdb6U, 0xbd23e804bde486b0U,
  0x3e6268e8be550cfdU, 0x3d7d1f3cbe223037U, 0xbdeb47febdbefffbU, 0xbba4b0e4bcb2ce3eU,
  0x3d64a2f4bd763789U, 0xbe5cf1edbd07b7e5U, 0x3da6ee54bda6d739U, 0x3db60e143d5b43efU,
  0x3e133dd23e3a27aeU, 0x3c40a037bd72d59eU, 0x3d61eaf83bf15ed7U, 0xbc401e34bdafa9feU,
  0xbcb11fd53e152e87U, 0x3bc33b613d884d77U, 0x3dd0972f3e078094U, 0xbe922581bd7965ccU,
  0x3dba467dbe02c2c4U, 0xbdf5bfa03e1a1134U, 0x3d4ba7af3d458993U, 0xbc873253be9b6cbcU,
  0xbd8cd15cbe8e18a4U, 0xbe26cb7c3e146e94U, 0xbcb40144bd29689dU, 0x3d73ffb53d5aa8dbU,
  0x3e0c6c53bddd9edeU, 0xbdbb754c3dac0b37U, 0xbe7b6309bd1ae062U, 0xbe2fda0dbcedae59U,
  0x3e242709bdfaeadcU, 0x3b37e3db3dc81475U, 0x3c6763d13dbc56bfU, 0x3daee36bbd07e714U,
  0x3e41686cbd1eede0U, 0xbe074e273e7bda3cU, 0x3d2347083e2e6e08U, 0x3d9052aabd4c3948U,
  0x3e552217bd8afe9aU, 0xbde8ad84bdafd29cU, 0x3d4b7144bd7461e0U, 0xbd4e46d6bd746938U,
  0xbe3fb273bd2c0a3dU, 0x3dcdbf373b7cab1dU, 0x3cd5aa96be25c7f9U, 0x3c505f3fbd86e9d4U,
  0xbd5338433de64074U, 0x3d5dfe45bdbd921eU, 0x3d7de067bdcab4b2U, 0xbc6c24593d1d531fU,
  0x3dec95c33e29bdf5U, 0x3d27b4aabc0f07e0U, 0xbd3ef2213ce2b1a2U, 0xbc6cddbdbd3be93dU,
  0x3c8b29febb73ffafU, 0x3e03d3a93a807d1bU, 0x3dd938dabe315ac3U, 0xbce467ea3e0e2438U,
  0xbdd6dc073d94e97eU, 0x3d7de4bf3dd85050U, 0xbe4e48fc3cd61400U, 0x3cd8e2f73cf414e9U,
  0xbda523933e202b2cU, 0x3dc736f8bb80de52U, 0xbce214ddbe034ef6U, 0x3dbb71bfbca54546U,
  0x3e376c343d80f182U, 0xbbac8048bcf7b7ffU, 0x3e46efc03c46ae9eU, 0xbe0b370b3cd2fe59U,
  0x3cbbbb5c3b4de897U, 0xbe193b883dfa1728U, 0xbdfc995b3d1032feU, 0xbd899003bbc7f1ffU,
  0xbe062b8fbd07102bU, 0xbc933cc33de4edccU, 0xbe09181bbda00696U, 0xbcc61ef2bca972c1U,
  0x3d190fb0bdaf8e73U, 0xbdff88c4bd47c103U, 0x3de5037a3d934939U, 0xbd86ea32bd78c1efU,
  0x3d00a3e13cb7ab77U, 0x3d0cb7703e865e89U, 0xbbb732563dd29cd9U, 0xbe3cfd3fbdd770f0U,
  0x3d63cb60bdeaee14U, 0x3db7f7623d8c0816U, 0xbdc046efbe144433U, 0xbe46d1073a08f4c3U,
  0x3e68c745be07437fU, 0xbde4f727bd8672dfU, 0x3dd637823e1d49c8U, 0x3d775f40be18f65eU,
  0x3e26e80ebe1bc86dU, 0x3d2602343e396d03U, 0x3db59b593dd2e967U, 0xbd21bae13ceae402U,
  0x3e320e8bbdf9ff99U, 0xbd8d6a143dd62774U, 0xbc4a93673d244cc4U, 0xbdd974183c57aec5U,
  0x3d576d453db1dedcU, 0x3c8cfb64bd0b3b52U, 0xbe0a0641bde31902U, 0xbd118204bd422229U,
  0x3d28ba87be52b4b4U, 0xbdad390c3ba5baa8U, 0x3da378dd3dd4754aU, 0xbd5aeb86bdcb7dbeU,
  0x3d4d57633de1c95fU, 0xbd7d7c62bc84f8d3U, 0xbe4a6b97be043c37U, 0x3dc74cea3dba80abU,
  0x3dd6e93f3d7e1d4bU, 0xbd33c6f33e043cdcU, 0xbdbdb7c63e06377aU, 0x3e0574abbdfaa893U,
  0x3db7a1d0bdafda50U, 0x3c9260babdcec941U, 0x3cb852fabdf35e21U, 0xbc736191bd9ec563U,
  0xbbcaae133a55a738U, 0x3c9837ccbd1d50c3U, 0xbe0f4938bd8c6f7dU, 0xbdeba05f3dd016b0U,
  0xbd97e6783c6dae33U, 0xbe2186e2bbe288c1U, 0xbd3a7ef7bded3685U, 0x3d82ac8dbd3f01cfU,
  0xbb80c84c3d59f091U, 0xbd87199abe06f6a9U, 0x3d826f87bc1ea1ebU, 0xbd5da69cbd5b9aa4U,
  0x3e75c3d03da91c1bU, 0x3c89965bbdef3a80U, 0x3dc77a053c8950e9U, 0x3dba6a9ebd1ac76eU,
  0xbdae3eec3d712835U, 0xbdaa5fb4be093e99U, 0x3d456e513cb4f40dU, 0x3dae9ba3bd40231eU,
  0xbe107a06bd872b15U, 0xbd5880fdbda4ae2bU, 0xbe006af8be21eb8bU, 0xbdb93db8bad408eaU,
  0x3e42788c3d2d13f1U, 0x3de5cf17be3db831U, 0x3cad02123d9b11efU, 0x3cd857753d20c816U,
  0xbd8bbd28bda2a057U, 0x3d0853ebbdfb4f93U, 0x3d8db566bd78ad7aU, 0x3d48055e3d1c55ecU,
  0x3dd897763dee371fU, 0x3d4716babdd9524cU, 0xbdf8145bbd63c604U, 0xbc5c5edabde2f778U,
  0xbe1767f53dcc9271U, 0xbcb2793cbcea42a5U, 0xbe2363da3c1a0368U, 0xbc9f0ee3bda604d6U,
  0x3e8fa433bdae1a7eU, 0xbbcf985bbd80a1b8U, 0x3e2930823e034751U, 0x3c7ba666bcf37bffU,
  0x3c64dd0dbd973f00U, 0xbdbc811d3bfb4f04U, 0xbd5c15563e38ecbfU, 0x3daaf050bda9546cU,
  0xbdfaf09d3ddc0844U, 0x3dc4b16b3cec2acbU, 0xbcc95f0dbd20ae63U, 0xbdca4b2a3c363b80U,
  0x3e3f17de3dd38e1bU, 0x3c4a3e3dbda539ebU, 0x3d64a434bd9759d3U, 0xbd01e8dfbd8a9d05U,
  0x3d48e53fbd646ae4U, 0xbd87d8eb3d4620b9U, 0x3e076cf93e2a3d66U, 0xbe00e3b4be305ffcU,
  0xbe44edb13e0227a9U, 0xbd8652bfbc877e49U, 0xbe1015acbdf20766U, 0xbd9aac883dab4be7U,
  0x3e15df46be208147U, 0xbd9a0bf83cbe3943U, 0x3e81c33c3d863b1dU, 0x3d1c5065bcd4dd38U,
  0x3e2fb6cc3d802714U, 0x3cfc611a3ccb937bU, 0xbdbbb4d73db76381U, 0x3e1e9ae63db58e38U,
  0xbda94eec3db26f6eU, 0xbc5d6728bc78fe4cU, 0xbd7bb0cfbcda4f2aU, 0xbbb20f483c6bd83aU,
  0x3e0192dc3dd55d67U, 0x3a9d19dcbd69341dU, 0xbd9d72e4bc918f99U, 0x3def462cbd9115dcU,
  0xbd600dfebd2ec923U, 0xbce38361bd1e9dfdU, 0x3e16791b3df980d9U, 0x3d5304953db5175aU,
  0xbd740a653d835632U, 0xbc6b03fb3b03944eU, 0x3c15e891be505453U, 0x3ddbfe593c9828b5U,
  0xbdeb38803d961183U, 0x3da7c7093d137197U, 0x3c949e72bd425b13U, 0x3caf951dbcdc914fU,
  0x3d0452e03d595a92U, 0xbd6288f1bda63e8fU, 0x3dd488c53ccc1aa6U, 0xbdff2305bd439183U,
  0xbbd00021bc146b89U, 0x3d526f26bdae6f2aU, 0xbde56be9be0388faU, 0x3df85bbebdba1a12U,
  0x3e0df559bdb1c2cdU, 0xbcbf16f63dc6906fU, 0x3d93227fbe25ce98U, 0xbd2a85063d919b90U,
  0x3e0dfbc1bc4ec138U, 0x3d256f5fbe330892U, 0x3d801a0cbdb14f38U, 0xbd5d156d3e26bc61U,
  0x3d90ac2bbdd4740cU, 0xbad8e55a3d97b648U, 0x3d6e45793c576a5cU, 0x3d80d8293d3645b3U,
  0xbd1fda523da155a7U, 0x3c9b19c3bd946140U, 0x3cce5914be001ee0U, 0xbd5052ee3d87e8a2U,
  0xbe6d536a3d4ae0b8U, 0xbc9d23b43ca88d68U, 0x3d395d07bd876689U, 0xbd4b9292bcd08065U,
  0xbd4960a9bd8d7803U, 0x3d259568be44ffc1U, 0x3d6260d9bd5c60b9U, 0xbda25d8b3d0efc86U,
  0x3dbfcc02bdeedebaU, 0xbccab276bd03f6c0U, 0xbdd53275bd933561U, 0xbd8c783d3d5f2f3dU,
  0xbd86f5b83d3bfc74U, 0xbd961bbb3d8d309eU, 0xbe2e26e1bdfc0668U, 0x3de19d743debb348U,
  0x3deaa69b3c17bb15U, 0x3cd5e327be07eb61U, 0xbd948073bc85332aU, 0x3c5cb87dbd52ad26U,
  0xbda77e00bc081183U, 0x3b2f003dbddf20ddU, 0x3e379a67bdf68190U, 0xbd0ead923e3d3e1cU,
  0xbe9de1683df16f1dU, 0x3ddd182b3d63df14U, 0x3d83c0a3be823d09U, 0x3c606b54bc556609U,
  0xbd84c7e73b7d505dU, 0x3cf18012bd82f90aU, 0x3df51d72bdb95212U, 0x3bebc64d3afa8b67U,
  0x3d719707bdedf560U, 0xbb565a1fbc6bb9e7U, 0x3e15c11a3da1a111U, 0xbdc92d153d85f87aU,
  0x3cdfa46b3e8b8d1aU, 0xbd75c7223d700a12U, 0xbe5f751ebd8f74deU, 0xbe1385da3daaca3aU,
  0x3bbe67a2bc48e091U, 0x3d83cd043dcf7610U, 0x3e25b9173d56e879U, 0xbe256e243cf963e3U,
  0x3ce0687bbd9b24b3U, 0x3d8da2233da91091U, 0xbd46473ebe18672fU, 0xbe563fecbe6c2da3U,
  0x3d59a129bd7bb626U, 0x3d5432fc3cfb49fcU, 0xbd2df38e3c3a1d31U, 0xbda69a8fbd81b3d2U,
  0x3e01fa27be8a7980U, 0xbdedb1783e03b95aU, 0xbddc836d3e24b4cdU, 0xbe10ac6c3d756190U,
  0xbde46a5abd107324U, 0xbdf77fc8be6d122bU, 0x3e3a305dbe03973dU, 0xbe0f71a13dcbdef3U,
  0xbd806de53e039088U, 0x3d9133bf3dac83bdU, 0x3d595a15be43dd79U, 0xbe12f24dbe1f8420U,
  0xbe190453bc81422cU, 0x3db851aabce8d259U, 0x3dfdc5493ce1b84fU, 0x3d08d4ccbe1cc60cU,
  0xbdd6f6f9be3cc9acU, 0x3d3d1143bd5952fdU, 0x3c9dd834be2bf2a9U, 0xbe15e1c73da1150dU,
  0x3aa387aa3d17f734U, 0x3b937888be2827e5U, 0xbe2bb52f3b7355d0U, 0x3da7f6303e12d286U,
  0x3deadfbfbe11ceffU, 0x3cedaab73dad67edU, 0x3d31cc133d9cebbbU, 0xbc9af7e53d689360U,
  0x3e0736d6bcb5de82U, 0x3da45efd3db06df1U, 0x3e05e08abc473e17U, 0xbd44275bbe7adba5U,
  0xbbc82045be59c8a1U, 0x3e0cf0febdb81374U, 0x3dabbb393d4aea5dU, 0x3ded3ea53c373953U,
  0x3e10ff1abe0d0e74U, 0xbdf651d13d9312eaU, 0x3cc6326b3dd7f720U, 0xbd9377db3e0604dcU,
  0xbe3082efbdb561d9U, 0x3e0267f4bc85b519U, 0x3c6034863c8c2825U, 0xbd0cb0c93dfab76dU,
  0x3d2e9e933db16e9dU, 0x3dabf21abd116235U, 0x3b7b15cebe361ea6U, 0xbdd440cebd362fc0U,
  0xbe0f661f3ddb1fa5U, 0xbd8665c0bcc3774dU, 0x3e0660893d2f050cU, 0xbd42e59b3d04f635U,
  0xbd0c1fe2be48d23fU, 0x3d5a96be3ceef591U, 0x3dac3ce9bda94e34U, 0xbddbc42b3e021c8aU,
  0xbcf44359bc981be4U, 0xbc283be1bc67b7f7U, 0xbe261a69bd9261acU, 0x3d3eaff1bd88ed1bU,
  0x3e5f50e6be48105dU, 0x3d6f25043bb1eb4bU, 0x3da65ee4bc1def25U, 0xbdfa40083c5e4c60U,
  0x3d803a50bbfe9a71U, 0x3e161be13c7bb42cU, 0x3ddff0ffbc1c21aeU, 0xbded7c6dbe7a2dd4U,
  0x3dd65582be3cb310U, 0x3e0d0f513d05acaaU, 0x3b3e5dac3d8e544cU, 0x3c452d063e5e21c5U,
  0x3e0c308ebe7112c0U, 0xbdeb93813dde8352U, 0xbd36a98a3e78fdf7U, 0xbda520f63deb5915U,
  0xbd2fa9033bbfdf05U, 0xbda12855bdb0591dU, 0xbdbe38abbd7ab8c7U, 0xbd6a314a3b0b127bU,
  0x3d4566f53d55f491U, 0x3b96ccfebd12f4f0U, 0xbd83aa52bd2464d6U, 0xbd438897bda85fd6U,
  0x3dfa8148bba1dc49U, 0x3d5dfd39bdb33572U, 0x3d7ac7703e0bfa4eU, 0xbdaaed293c1319beU,
  0xbe07707d3d99b930U, 0x3e705d0e3d40acfaU, 0x3d823017bd7405f9U, 0x3c87d2f3bd206f4dU,
  0x3c42e983bd4cb479U, 0x3d22e059be150509U, 0xbdb387a6bd93df1aU, 0x3d7ebcfe3ddbb6e1U,
  0x3d7eb1be3c0b3f49U, 0xbdfa695bbd2914d4U, 0xbe83adc2bdb9e6b1U, 0x3da31ae13dab7e84U,
  0xbceceb443de0ea5bU, 0xbe0e2024bc6a96e5U, 0x3cf8d4b43e50e41bU, 0xbcf886c83d9dd09eU,
  0x3dca4dc0bbb338b4U, 0x3e484ababda7e41dU, 0x3bf591573d7fedd4U, 0xbe2e7b83beb676daU,
  0xbe8840753d5786bbU, 0xbda3a22a3d415a50U, 0x3d226d893c63f879U, 0xbcf5d717bc5069a2U,
  0xbcfdb490bd1b432eU, 0xbdb3353ebdba454dU, 0xbe0a31af3d401477U, 0xbd028c983d5a0570U,
  0x3cae61fc3e4d1c78U, 0xbde08cda3cf70676U, 0x3d9da1a63a1b5714U, 0xbe32275bbd5ee41cU,
  0x3da3452bbe0ea23bU, 0xbde7814d3dde2779U, 0x3e5ffaf73cee7effU, 0xbdb3bdbf3dac8ad2U,
  0xbdc2778ebd0d3bf1U, 0x3e27e5bcbd4ac975U, 0xbe498514bd19c163U, 0xbdf7db34be069194U,
  0x3d848cfb3dd9ef66U, 0xbd5967bebe091421U, 0xbc3105bb3e0d5bc3U, 0x3d879c963ddadeedU,
  0xbd89080dbe410e1dU, 0x3dc5a070bda91007U, 0x3cc044cdbe22445fU, 0x3df4ad393d3ac4dfU,
  0xbdcef19b3d2c4ed7U, 0x3d892bd83d0def67U, 0xbd8b7e9ebd03c69dU, 0x3e0e53afbc69b193U,
  0xbcba71af3da4732bU, 0x3e2746c4be14f75bU, 0xbd9e79173dcc3528U, 0x3e11ff76be2452cbU,
  0xbdc1b7a6bc02b3ffU, 0x3defb2be3c7304bcU, 0xbd837ae0bcd7827eU, 0x3d8501f0bcca7907U,
  0xbdd920473cfd214eU, 0xbe8647d1bcc571d9U, 0xbd66b0fa3d11335cU, 0x3c8c2d09bdd9a2a6U,
  0xbda91e553da4bf41U, 0xbc7c6dc4bce91872U, 0x3dbcc045ba6f358aU, 0xbcbc12c9bdea5c4fU,
  0x3db5bb5ebbd3b6b7U, 0x3c873e0e3e150df1U, 0x3dc2979e3d45abe9U, 0x3d102e18bdf41f75U,
  0xbde95a4ebe0760a6U, 0xbdb37c7fbce7996cU, 0x3b5574b9bd998992U, 0xbbabce593da6fde7U,
  0x3e1bd1693dee3ad5U, 0xbde59579bcf540d7U, 0x3df86a78bc524d75U, 0x3d5fd1c33d65aa93U,
  0xbe389c98be0075b6U, 0x3d823466bc8e4250U, 0x3e0a93b6be6b3fe3U, 0xbe04a56dbc790f1eU,
  0xbcbb0e663cc1a75bU, 0x3e25ecb4bcd0fbafU, 0x3da75c63bdbe8356U, 0xbda4a11abe7d3f52U,
  0xbd920e923b047de7U, 0xbd19be053d362779U, 0xbce145a93ca4739cU, 0x3df7f2ae3dcece9dU,
  0xbcb77423bd47f3ddU, 0x3da899bebddd4c4eU, 0xbe0572d9bde787fbU, 0x3e25fd093d0b7627U,
  0x3e269377bdb48ff8U, 0xbca39aab3c1712cbU, 0x3e677b9bbc247bffU, 0xbd4846c13d3defadU,
  0x3e3cc64d3e17db72U, 0xbab95e823ddf420eU, 0xbe00a2523c105eb2U, 0xbc68462e3bfc07b3U,
  0x3def27153beb38beU, 0xbe47fa143e0e3cdbU, 0x3d3af04ebbf85632U, 0xbdf5795dbcefa061U,
  0x3e58646c3da6ed69U, 0xbc3fdfaabb240ef2U, 0x3e4c6741bdf2f5c8U, 0xbdb1fdd9bd98969bU,
  0x3d54af0bbde4f3e1U, 0x3de108aebdf26497U, 0xbdc69de0bc598b74U, 0xbbb50ba63dd3010eU,
  0xbdf9df97be8433abU, 0xbe278a713d0df8cdU, 0xbe868d08bc60d527U, 0xbe1a0532bcaa19d5U,
  0x3d8a554f3daeb239U, 0xbd60d38f3e23d0eaU, 0xbdbf7ab4bd215b5fU, 0x3a01b2eabd2624e5U,
  0x3d3bc9ed3d27bd82U, 0x3dd92a4dbe2887f6U, 0x3c8aacdb3d334a03U, 0xbce909063d8b95b2U,
  0xbc39122e3c1602f2U, 0x3d87df213e1afef5U, 0xbdcb60693cb06dc5U, 0x3d8e2d413d180ea4U,
  0x3db88c91bdc5a973U, 0xbe1b27f13e146c36U, 0xbca80e403dc546d0U, 0x3dd03341be1e5245U,
  0x3d9c5edfbdd691b8U, 0xbdd5c0c93d46d827U, 0xbda1a4643e0cad59U, 0xbe069c9fbd15b6bfU,
  0x3e0443d5bd94257eU, 0xbe8f4cb13e08a1e5U, 0x3c0c4d1bbe040acdU, 0xbc34c4b23d86f3e6U,
  0x3df50d3abd82a555U, 0xbe0ab12b3d220723U, 0xbde69bc4bd3e64f4U, 0x3cc65d0bbe7ba3a4U,
  0x3df37960bdc9d642U, 0xbdd6cdfa3ceb3477U, 0x3d525b543de7f0ebU, 0x3d579365bdac5500U,
  0x3c82c152bbdd7b3aU, 0x3dbf19b23decd0c9U, 0x3ce458bebd138210U, 0xbdf0e3e13d971500U,
  0xbc97be0b3d0ab682U, 0xbd2a234fbb4a28adU, 0x3ddea0af3c04b47aU, 0x3d947eeb3d046ec3U,
  0xbe06e309bd1d0abaU, 0x3d104bbd3d7f3ef7U, 0x3d272b3f3d4c4358U, 0x3d0b8480be642677U,
  0x3c7212cd3de067f0U, 0x3db251af3dd493e8U, 0xbd83ee1dbdb03deeU, 0x3df60b13bd86329cU,
  0xbd76855e3d648265U, 0x3cb2bf83ba79b500U, 0xbdfae4f7be032204U, 0xbc5b5f863ccb1f9eU,
  0xbe3203703db93565U, 0x3cfcc456bd9925faU, 0x3d629724be21a3c6U, 0xbdcc44a8bd39c407U,
  0x3de61ec53d59a230U, 0x3daa8598be1528b0U, 0xbd1fc73fbd9cadacU, 0x3dbbc6b13d4efc75U,
  0xbd7320f4bdae62b1U, 0x3df50b14be57be78U, 0x3e03fd3cbe0c7d82U, 0x3d1acb77bd33e526U,
  0xbdb7e7febe0a7113U, 0xbd84b9a03e3f236dU, 0xbda77b46bdab3e63U, 0xbc93b46cbe43e10bU,
  0x3da296583e37b5e7U, 0x3e20f6ddbe2f9165U, 0xbe012883bda0898aU, 0x3dae74d0bcd3a1b0U,
  0x3dc31a3e3d40e7e7U, 0xbd6e8a29be058f6aU, 0xbda03b1c3da5afcaU, 0xbd400fdebd8b4619U,
  0xbe238047bd496982U, 0xbdb0daba3e68b89dU, 0x3aa9e24f3cf20263U, 0x3c51cc3c3ccc74fdU,
  0xbc06f6453c0bedd5U, 0xbdb23bfdbd01edc2U, 0xbd576b5bbde00419U, 0x3c808965bcd0db4eU,
  0xbb5698423ddf5224U, 0x3c9b1db2bc4f1968U, 0x3e445740bd1f84ceU, 0xbd236b793e0568a8U,
  0x3dd595c23d61d026U, 0x3d2972f43e365fe6U, 0x3cd9a18b3d8b7a87U, 0xbcf71c51be50530fU,
  0xbb7d23b63da1edacU, 0x3dafb5e43e5fc649U, 0x3c9b5cbd3d881d5aU, 0xbdf3650c3e06d519U,
  0x3dc0ebf2bdab3568U, 0x3d529916bd2ad02aU, 0x3d707f3d3db4e3d0U, 0xbd91f3403bea91acU,
  0x3e0a7903bdb63f6fU, 0xbd9322603d6bf88aU, 0x3dca5fd43e3dfa4fU, 0xbd0e474ebdf7e849U,
  0xbc66605fbd90bd6cU, 0x3e3b56793c9d34eeU, 0x3dd52653bd196f51U, 0xbdfade5fbbc66d1dU,
  0x3c3c4d973d2f62f7U, 0x3e0c55313be48f9aU, 0x3c084999be06a18aU, 0x3d6b954abd9c61dfU,
  0x3d365cffbde2fb98U, 0xbd8d5d0fbdb86067U, 0x3c7a00bebde279a3U, 0x3da6712c3c325936U,
  0x3df8d8abbdbe7550U, 0x3d36950a3cf0549aU, 0xbdd02e09bca91282U, 0x3d59ed87bdd59476U,
  0x3df26f9abd70e8c7U, 0xbdec89533dd5e01bU, 0xbd65a6283cfd37a8U, 0x3dd6184fbddabc18U,
  0xbcbd7346bd2db77aU, 0xbd84e2b93c1bf6bcU, 0xbd8d71953cc273d6U, 0xbdb36d7fbe128263U,
  0xbe1e5bc43d3faaa8U, 0xbdb805ad3dc893abU, 0xbe4eb9ea3cebfdb1U, 0xbd80f3b5bc8f4f80U,
  0x3d152276bcd5051cU, 0xbc2cea933d271765U, 0xbd53bebc3e428339U, 0x3d68d964be8ed8ebU,
  0x3cd614bd3d4118f6U, 0x3dc679473e3d7e08U, 0x3d0bcec63e4af4a6U, 0xbc9b5380bd7473c2U,
  0xbd5f2221bd8ffa0bU, 0xbe49637fbd88f174U, 0x3d33c5debdcfe332U, 0x3dc56a01bd187784U,
  0xbdce88f3be0db380U, 0xbded726cbdd090c0U, 0xbe2a50a33e30c0c7U, 0xbd6dd050bdf0dca9U,
  0x3c5d24a8bca045d1U, 0xbde30d313e07cbadU, 0x3e2c4b763deafd1dU, 0xbc7f6255bdf6fd60U,
  0x3d8906913c41b225U, 0x3c20f83fbd9cece4U, 0x3c386e63bdd99739U, 0xbddb1e4e3cf2c6d2U,
  0x3d1ca331bd027227U, 0x3c4b3657be08e4dfU, 0xbdb08652be25b7f1U, 0x3d0ea7063cddbab7U,
  0x3b09ceb63a22437fU, 0x3d2cb25fbb6031d9U, 0xbd120e50bd65319fU, 0x3b268b81bce83b81U,
  0xbb7e7aeb3c899518U, 0x3dd8d0d1bcba8e77U, 0xbdbdd546be0c8419U, 0x3d511d263d8f17d2U,
  0xbe0f2d38bd10498aU, 0x3d3b6598be17eb15U, 0xbdf7a15cbe5499b1U, 0xbce00592bdd8e5d1U,
  0xbe277518bdea375aU, 0x3bcf2745bd1996a2U, 0xbe24d60fbdd29c49U, 0x3d8ffe14bcfdc65dU,
  0xbdbc4b663d9118cbU, 0x3e32e1f1bd4e3597U, 0xbdeb3f25be1d98c0U, 0x3db92211bd98941dU,
  0xbe62be9a3c71876cU, 0x3c22bf933c88e669U, 0xbe37ed873dc738c3U, 0x3ddc1999bdc75306U,
  0xbe0e91abbe03875aU, 0x3d59fdeebdc6d3d4U, 0xbd3bbd09bdc64473U, 0x3e24da7cbd75d410U,
  0xbc7d85163cf4814cU, 0xbc0ae07fbdb9e89bU, 0xbdc75304bda38cd1U, 0x3e135690bda3f01dU,
  0x3dda3f3abd93e4a0U, 0x3c997ac6bcb2a5c2U, 0x3e5c31183bf326c9U, 0x3b8dccf23dbedd52U,
  0x3e0a81e93de276b3U, 0xbd2794153e896c14U, 0xbb272808bd20549cU, 0xbe07f88ebd50c35bU,
  0x3de54cf33d6c7166U, 0x3d9715e2bc704800U, 0x3cd15e72bdc3b3e4U, 0xbd6948cabdb7c33fU,
  0x3dd8f145bd92dc62U, 0x3e134a09bba8f2f4U, 0x3e0268f83db68d4cU, 0x3d084a30be1e426fU,
  0x3da5227b3d0eb7abU, 0xbde7e83a3e8c088eU, 0xbd68858c3d95ebc4U, 0xbd88d976bb3b2ebaU,
  0xbdb78b67bc6537e2U, 0x3db1ff833d100d43U, 0xbd136512bdef54edU, 0xbcf51da7bd84af5aU,
  0x3d381d523bc86c8dU, 0x3cb25977bd8dc728U, 0x3e40286e3da98efdU, 0xbdc31c003bf7035dU,
  0x3d7bf3c9bdaa21e9U, 0xbd9f647b3d89700dU, 0xbdfe9db9bde1cfabU, 0xbd840b6fbdd8a9bfU,
  0xbdea0d613cbde92cU, 0x3da78a13bd72afacU, 0xbdc68f34bdbd3246U, 0xbcfc6b6bbdfc86a4U,
  0x3e412532be03df5aU, 0xbe3d12b8bddc3f40U, 0xbd7d8126bd123de4U, 0xbd6240a4be65f08cU,
  0x3d9975773dc872a0U, 0xbc85191c3e414e9eU, 0x3d4c552fbd83e0e0U, 0xbe3d8ebabe0c1e31U,
  0x3d91d334be77f694U, 0xbe4ed3bbbd89c1eaU, 0x3cdb39d8bd60f766U, 0xbde60835bb4720fbU,
  0x3d891a323ca8ae61U, 0xbdd93d1a3d49741fU, 0x3d2c55783deb18d6U, 0xbe033fc2be76e753U,
  0x3d8aab8b3c697450U, 0xbdb0e0b63e653660U, 0x3df2e0aa3e12183cU, 0xbda81aaebe0fe24bU,
  0x3d5e5ebabe6b68f0U, 0xbd4abf71bd2fbc7fU, 0xbdbcc3f93d6bef79U, 0x3d47d0c2bdd7b1beU,
  0x3d351002bd94b91eU, 0xbdcaabc53d395b1bU, 0x3c7d59cc3d4dab35U, 0x3c71018abea0feffU,
  0x3c767f0ebd4c1873U, 0xbe1f46123d9c713bU, 0x3dadf7153db3f5f6U, 0xbd5800c0be283eabU,
  0x3d6936f7be3d9ce3U, 0xbe698053be27c64bU, 0xbdc26593bd040f70U, 0xbe049d1dbd984bd7U,
  0x3d4296873dc4999eU, 0xbe01cfde3d962f26U, 0xbe7539223e19e76aU, 0x3e13e476be38744bU,
  0xbcb19c89bcf5cc6fU, 0x3de9c81fbcefcf0eU, 0xbd1a25c3bd1e1c81U, 0xbd101570bd63de52U,
  0xbb5d701dbe09b42eU, 0xbdf487bbbcf27f77U, 0xbe2a1c62bcf915a2U, 0x39e3b17f3d71ba00U,
  0x3da9547b3dcb0b17U, 0xbdda2f1f3df370b7U, 0xbe0f20573ccbe043U, 0x3cf7d471bd8911e1U,
  0xbe042a41bc0e6cc5U, 0x3ce1a64bbd319f82U, 0x3dd9cdc9bd365f89U, 0xbdc65d2abc0a660aU,
  0xbca1f240bd61dc0fU, 0x3d7a90903dbb8ef8U, 0xbe1d358c3dad4c11U, 0xbc1b1a15bd7c4446U,
  0xbdbd72d23da6bedeU, 0xbd8cb2d53d9d3a70U, 0xbdd8ac0ebc0b5ac9U, 0xbba6c303be3ece25U,
  0x3c0826ddbd491047U, 0x3cd34505bb66e8cfU, 0xbaaa16183cae80baU, 0xbb487fb2bdd21cc1U,
  0x3d024410bc4e1263U, 0xbbe58d3cbd501151U, 0xbdcf5cbd3d10f13aU, 0x3d12ce1d3dfd450cU,
  0xbe06fa5bbd6edc5eU, 0xbc0a0c10bdf17759U, 0x3d7030b5bd9f8e26U, 0xbe1c0022bddbc95fU,
  0x3c49aa8c3c895376U, 0xbcc2613e3d3427e8U, 0xbe257369bd314d80U, 0xbe0e2b03bd5a7a2fU,
  0x3cf6b036bdd2eb12U, 0xbe1ce673be3b9471U, 0x3c8d6e83be2b0668U, 0xbd5a5f90bdd41011U,
  0x3d44db5e3d381e21U, 0x3e166f48bcebe2b7U, 0xbd3212bfbd920f82U, 0xbd2d5df5bd843798U,
  0x3dfa0730be023a0aU, 0x3c5010ca3d0a9278U, 0xbe1ccefc3d6c97c5U, 0xbcfe48673d84eb0aU,
  0x3e497eb6b961d390U, 0x3df2cd383c775685U, 0x3d8effebbc79dfa4U, 0xbdbbe5973be8f2f8U,
  0x3aaaaf153bcba85fU, 0x3e60369a3d47ba28U, 0x3da1cd5fbdc8a9b1U, 0x3bdd8527bcff2e6dU,
  0x3b25019dbd04f967U, 0xbcffdc073d3c9870U, 0xbce730c43b3af96aU, 0x3dc8583a3dc4fff8U,
  0x3e4e5b7c3d0373a9U, 0x3e19a29fbd336f2aU, 0xbdb5a07e3e665e60U, 0x3db6c449bc1eb72fU,
  0x3cb915b1baae8567U, 0xbde754e5bd94e69aU, 0x3cbbc822bd335654U, 0xbd542547bc395fd4U,
  0xbddd219cbcee3f07U, 0x3cf3c8613d4d385dU, 0xbd044b11bd1bedb3U, 0xbe534be9be63fe16U,
  0xbd0b33edbe1c5e54U, 0x3d164a2abd983519U, 0xbd390db7be13ba49U, 0xbe02e328bdd8ca6eU,
  0xbddc9f1bbd7dea77U, 0xbe0b577bbd5603c7U, 0x3d6aec4dbdace37aU, 0x3cdc1ab5bd302a03U,
  0xbde616d9bdc11915U, 0xbe0808ddbddccc93U, 0xbe188691bde41a3cU, 0xbd97d8a4bd7109a3U,
  0x3d9757bdbdcaef26U, 0x3c1a0ba5be114d1aU, 0x3d23dd4fbce949d8U, 0xbe14def2be137710U,
  0x3de9863dbc050578U, 0x3c645e6c3d2ae6b4U, 0xbd39ec22bd3f0e30U, 0xbd14b485bd0bf69dU,
  0xbc6da6aebdc8933dU, 0xbdef32e13cb236d3U, 0xbdb1d50cbdc95701U, 0x3c6770e13d879d58U,
  0x3d498732be1e7d10U, 0x3dd1cd76bce1fe31U, 0xbbb2ccf8bcf744f2U, 0x3d5fcecb3d96131aU,
  0xbe1656973dd4e8c9U, 0xbdb464d9be2c2c7dU, 0x3dec17063bf8ace7U, 0xbc8383f83d058016U,
  0x3db559943dd1ed95U, 0xbdd40cdcbd8e614bU, 0x3d2d55643d6db443U, 0x3c270fc1bd3cf9cdU,
  0xbda5f40e3db49928U, 0x3dcb3037bd8566e5U, 0x3d2b8189be23c9fbU, 0xbdb8be37be436af0U,
  0xbe0ef9a1bd5179c5U, 0xbe152a19bd896adfU, 0xbbb490a1bc74f3adU, 0xbded3bbb3e00ee86U,
  0x3c5521f0bd25edecU, 0x3c1ca6b4bc90669eU, 0x3d40d3e2bd00b846U, 0xbd5ab62cbd8fef27U,
  0x3d562eb9be11d725U, 0x3c0deeed3cf1418bU, 0xbd019798be151004U, 0xbe308ffabd0d0496U,
  0xbdde4a7dbd9f4ea1U, 0x3e58cc8f3dbfe2d9U, 0xbce6af7abd5feec9U, 0xbca4e39dbd144fa7U,
  0xba02f9eebbc63111U, 0xbe393134bd39c14cU, 0xbdc9450d3dbaa164U, 0x3dde8f943dfa5eb5U,
  0x3defdfd33dc83abdU, 0x3d3e5107bd9b9772U, 0xbe40a01a3e45ad9dU, 0x3ba549fc3e126a0cU,
  0x3c83b56b3d158975U, 0xbdb0a63bbdbb98f2U, 0xbd3275663c02b86eU, 0x3d286e75bbab5ac8U,
  0xbe10fd453e8138cdU, 0xbdf44ae23c7a1520U, 0xbdf4b2a53c00f48aU, 0xbdf6bca9bc774a14U,
  0xbc9382093b888ba7U, 0x3d67c439bd61b7a4U, 0x3c89c484be1552f2U, 0x3cb699a6bc3f71f0U,
  0x3e170e9cbd72b65aU, 0xbdf10993bd23e275U, 0x3e10bbb83e106ee8U, 0xbb7ac8ff3ccd890fU,
  0x3c6e47a33e893710U, 0xbd48a7f93e5ea932U, 0x3e3455de3dbf8703U, 0xbc8970f3be6ddfb8U,
  0xb8f99b6abd9ed84eU, 0xbe1583573c9de92bU, 0x3e21d9adbc315c14U, 0xbd80f0d1be29f290U,
  0x3da83461bd7fca31U, 0xbc37b7f13df666a2U, 0x3e3d10023dd0cb68U, 0xbe0ffc353dab7f7aU,
  0x3e7dbcf8bd12ec74U, 0x3ca1d4fe3d772480U, 0x3d8da4cb3e5e9aadU, 0x3dccec1f3e3040f7U,
  0x3d2873dbbe19b100U, 0x3dcef41fbc46e6cfU, 0xbdcd88bb3d578148U, 0xbdc87929bdad911fU,
  0xbdd05279bc916b1bU, 0x3ca8e33abe282bbcU, 0xbe1b8626bdb22d2cU, 0x3ce46cf53cb3c493U,
  0xbdefe60fbc724c88U, 0xbd6d2f95be0c9175U, 0xbc1f9567be0dbdb7U, 0x3b50749c3c0ca48eU,
  0xbc021966391ceeb0U, 0xbc5ed3d53c3ffffcU, 0xbe1a7ed8be709b55U, 0xbc3e68803d237143U,
  0xbdc313febce5ee7aU, 0x3c9be43f3bb0cc6aU, 0xbdd54979bc2642feU, 0x3ddafe88bde1b7abU,
  0xbdc9cc2a3bbff5fdU, 0xbd77a23ebced3a8eU, 0x3d162251bd53b58bU, 0x3d10ec46bdc838eaU,
  0xbd9911f4bd206699U, 0xbd2cd465bd9c5146U, 0x3da436e93b810feaU, 0x3d6b4b0abd460b85U,
  0x3ce76f43bd96ffa9U, 0xbe8278263dc15fd0U, 0xbde6a4e83e1e0c4bU, 0x3d337ea0bd9a1801U,
  0x3d4628123dc3f228U, 0xbc388febbc92f0aeU, 0x3e2852bd3de4f2b4U, 0xbce90d683c1f645aU,
  0x3df89e16bdbdba64U, 0xbd806898bd69d7c7U, 0x3e135408be70117dU, 0x3d4337183d380262U,
  0xbd6f4ae9bbc50e65U, 0xbc41e0533d474305U, 0x3b2139dbbd06cc07U, 0x3d5f66ebbe06006cU,
  0xbe04fc85be1b180bU, 0xbdf03698ba652a5cU, 0xbdce3e1fbd589a5fU, 0x3c66a5f23d4a2254U,
  0x3dab2098be0ad5c2U, 0xbd9e88bcbde39acbU, 0xbde40a20bd94edcbU, 0xbd6c45ddbdb707f0U,
  0x3dcb38963d6c1710U, 0x3dff6ded3d8d4adcU, 0xbe129a89bdaa8950U, 0xbc006d8fbe071563U,
  0xbdffe387be2cf4e4U, 0x3c52ee38bdcad983U, 0xbdb9bd8fbdcca499U, 0x3d14f305bd70c761U,
  0x3e1d5fe2be21894fU, 0x3dbc4c98bd562cfeU, 0x3d824f5cbe1cf267U, 0x3c026f6cbbdd87e9U,
  0xbe88259b3d7b5d4eU, 0xbdb3778fbe3ce641U, 0xbd9a478cbdbc2a8cU, 0x3d19bd063d8acc86U,
  0xbdb42a053e00714cU, 0xbc2f0e96bdfd13e3U, 0xbd2c6f0dbe1043f6U, 0xbe13136a3d622006U,
  0xbdc4e08e3e02d76dU, 0x3e0a1c01be64f491U, 0xbcce511fbe078d3dU, 0x3d89a3913d8f5ce7U,
  0xbc80485f3bd282e7U, 0x3e00f612bd953ea4U, 0xbd0ea17d3cc05f89U, 0x3e0341e2bd35a08dU,
  0xbcc3366ebe0ced1cU, 0xbbdea6b6bc91e1f8U, 0xbdfe91d53d2b7d4dU, 0xbd499ea8bd4afaeeU,
  0x3b87f9323e18613dU, 0xbd2272b53da00e08U, 0xbcf0a009bda7037eU, 0x3d71faf23d6f587fU,
  0xbcc9d6e03de49e89U, 0xbca3ae0bbda3179fU, 0x3d0cb57c3e0ab2c9U, 0x3cbbf188bd8172edU,
  0xbe05abbe3d41bdceU, 0xbbe53b8d3d6df1f5U, 0xbcae51f8bde8aa8eU, 0x3d0c8084be05aa00U,
  0x3dfffb65be0563baU, 0xbdd47fbd3d93f13dU, 0x3dea457cbda95365U, 0xbdf34fc2bc511b89U,
  0xbe0c6843bdeac765U, 0xbe35c618bdbb93ffU, 0x3bd8c60a3dbe379fU, 0xbde0141b3b87e4c1U,
  0x3d620cca3e291b1eU, 0x3ccf2c92bd806393U, 0xbdb32a17bc594007U, 0xbdaff6e8be008f67U,
  0xbdf4123abd9e23a0U, 0x3b8d91bf3da8f3b8U, 0x3d067a0abd14d6d1U, 0xbe0dc80bbe065fe4U,
  0xbddd6b59bd3b948bU, 0x3dde4deb3d4f49d0U, 0xbd9394823c6a8095U, 0x3cf571b6bd77d575U,
  0x3e086c0e3e425047U, 0xbbe8d54e3d34ef6cU, 0x3e12032bbb3933aeU, 0x3dec53913c46fad8U,
  0x3d3ffb95bda21480U, 0x3db9d2fabddd6321U, 0x3e0233643d52c456U, 0xbca970a43d44736bU,
  0xbd66dc493d93dd34U, 0x3e542836bc585bacU, 0x3ce8c343bd9806e2U, 0xbdd3bdf3be38a702U,
  0xbdb639e2be03c31cU, 0xbdba67f3bdabc23cU, 0xbd2515dc3d199d0cU, 0x3e26ba893e1b45cdU,
  0x3e1d98a6bc911506U, 0xbca10984bd8a2ffcU, 0xbe173f74bd77ee1fU, 0x3dfd3bd0bd132238U,
  0xbe1dd9aebd29408aU, 0xbe5629f6be22b2e2U, 0x3dbbd7e13c04854bU, 0xbc6293583e1cdb83U,
  0x3e4de0b83deccd30U, 0x3dcea9e03d908267U, 0x3dadfa883d681814U, 0xbe13da4bbdb06f91U,
  0xbe423ebb3d3b8020U, 0x3d3b4b29bc187417U, 0x3de8dfe9be15d4c4U, 0xbce9a5e6be0c47ddU,
  0x3d39069fbdaa086bU, 0xbd9ba7593dc25640U, 0x3dcbc72e3df78000U, 0x3ca58b02bd4596a5U,
  0xbcca7cf43c925f05U, 0xbbd6929939371f55U, 0x3dd5679c3dbb6027U, 0xbd9874fabdd52704U,
  0x3c88f051bcbdf880U, 0x3ce5f8453c6cf6ddU, 0x3df85f3b3db5355eU, 0xbd996a703d688082U,
  0xbca9caabbdb672e4U, 0x3e76f53d3ca71726U, 0xbdfd2d67be386d88U, 0xbdce036ebd69bc08U,
  0x3de15c95be2975c6U, 0xbdb96e6b3bb7fe09U, 0xbcd5fd8a3d4cb45aU, 0x3dfea65b3e12ffd9U,
  0x3db7e152be059a14U, 0x3db441f7bd889359U, 0xbdc74461bddce174U, 0x3dc5848f3d958778U,
  0xbd7abc623dfe0cd4U, 0xbcf607a4bdfa0414U, 0xbd026916bd8eff2eU, 0xbd2db2443d7184beU,
  0xbdf8ed4f3dd6b2c2U, 0xbd0dacf6bc904734U, 0xbd3a48a3bd373fcaU, 0x3cfa3e6cb93d7a54U,
  0x3cd47141bda9b93cU, 0xbdaad604bd570893U, 0x3d835da03cd20a71U, 0x3decd75dbe1066a1U,
  0xbd9fd9393af0f929U, 0x3d6a5d543d18e5adU, 0xbe36f120bd8668c3U, 0x3dc7b38fbdab5971U,
  0xbe44e3fd3df2e3deU, 0x3d96f260be41af09U, 0x3d7bb1d1bd8a12dfU, 0xbd855352bde83c1dU,
  0x3bb3ce0f3b723cbbU, 0x3d1e7527be0da332U, 0xbcf52e993cb2fb24U, 0x3e0b2edabcd005e2U,
  0xbe52bb293cc25292U, 0xbe271804be240746U, 0xbe11b5babe8305bfU, 0x3dd8ec22bd5ff401U,
  0xbe6559f83d2b1a64U, 0xbd66c0e8be962925U, 0xbc2898f8bd23991dU, 0xbe268e06be50d341U,
  0x3bddfd9b3de36439U, 0x3d851660be09ca66U, 0x3b9e2826bec74fc2U, 0xbd089fae3da84881U,
  0xbd4eecb83c8b3f72U, 0xbbf40773be3a8891U, 0xbd3e4b73beae2660U, 0xbd5f28793dfe3508U,
  0xbd78ae2d3d6ac1bfU, 0xbe1a0ba2bdd3add5U, 0xbe2c739fbe01f44eU, 0xbbb885743b13daa1U,
  0x3d1063bf3cf8a1f3U, 0x3bbe3a4b3a7cfbeaU, 0xbd9d49b1be0587caU, 0x3cfc7cd0bcc32711U,
  0xbe89f2523e1906f5U, 0x3dbf5e7c3c209751U, 0x3e054c82be416c63U, 0x3d8a8e1f3d645f0fU,
  0xbe4e69be3e2fd07dU, 0x3d4a2160be0f54e2U, 0xbc1f4e78be1facbdU, 0xbd332605bdc0dab5U,
  0xbe0197e53d43f6c5U, 0xbc5dd7da3cb3dad5U, 0x3dcb1dbcbc436601U, 0x3e0265eabde1f606U,
  0xbe1a4bc2bc21a817U, 0xbcc0747bbe272ca1U, 0x3e1c07a8be0d7cc8U, 0x3d5876553cef06caU,
  0xbe3a66e63db34c27U, 0xbdb723b1bd2e83cbU, 0xbd86c26fbdf97e43U, 0xbe22d27dbda52fa3U,
  0x3d33dad0bd41fc8eU, 0xbd924eb3bc96ad3dU, 0xba3db48fbe1e59dbU, 0xbd4e08093d3ce4c5U,
  0x3e299ac93d164593U, 0xbd2aceebbdaabbd2U, 0x3e2dd852bdba2013U, 0xbdbf75f0bbd5e505U,
  0x3d0510473c60768dU, 0x3d218c91bb94eae6U, 0xbccb732f3b33cb13U, 0xbe0b2c3c3d80f5d3U,
  0x3e063bd1bc418910U, 0x3b700bb7bda962a3U, 0xbd057315bdbae411U, 0xbe1466093d67b533U,
  0xbda0f014bcf43ec9U, 0xbdd277763daab575U, 0x3db555e43ddddfc4U, 0xbdb69c04bbcc102bU,
  0xbd493d523dbb2970U, 0xbd8b42663ded3e49U, 0xbc6cabf93d2b189bU, 0x3e13f84dbdbcf438U,
  0x3e67ed84bdc73967U, 0x3c92a100bc9856eeU, 0xbdb024623df4a8c8U, 0x3cb54294bdcbd9a8U,
  0x3cf689a8bcf17e6eU, 0xbbd68b8d3d8731f0U, 0x3df7757a3e09d288U, 0x3aca22073da97e6aU,
  0x3d802ac63da4ff16U, 0x3d329c733d1ee891U, 0x3daf3bdabcfb9158U, 0x3d81c2e03c2c3d5eU,
  0xbd84e7a4bc4e0364U, 0x3b4973423deded5cU, 0xbd0817e33e146c7dU, 0xbcecac893d36b3ddU,
  0x3e13b9643d03393aU, 0xbde08d893e48b84cU, 0x3da52b823e611eacU, 0xbcddb78ebcaa07dfU,
  0x3e87eace3d8429fdU, 0xbda388b63d9c296dU, 0x3da8ee703ddd3154U, 0xbda085b73dc38faaU,
  0x3e00f222bdc5a80cU, 0xbd93e5fb3de3f8deU, 0x3d99d875bd95ca2aU, 0xbd1ca1513de7465bU,
  0xbe4313f43d33b016U, 0xbd274fbfbe334801U, 0x3e1f3cbabe0e17d2U, 0x3d22ed9fbdde4244U,
  0xbd9c8abb3e25faa3U, 0xbd7e2b463d77f17cU, 0xbc977c4d3c964153U, 0xbe174dad3de28f35U,
  0xbe248c753d620a00U, 0x3e0109de3c844f7dU, 0x3b8b5d633db00555U, 0xbddd766cbdddfc1fU,
  0x3dee12c83ca168c2U, 0x3c057ea83dbfbb9aU, 0x3ea92677bd804294U, 0xbe4206883d78f7b7U,
  0x3e15e24e3e377177U, 0xbe0ddebe3e522bf4U, 0xbcfecd71bdbb6fc6U, 0xbd03a18a3e3cb352U,
  0xbda2a7f0bd0382a2U, 0x3d8397f73d6380d7U, 0xbb5be78ebe22952bU, 0xbd50f8abbdddbfbfU,
  0x3eb844413cd465daU, 0x3e00c5493dd54c70U, 0x3c90ee2c3e40a2e5U, 0x3d51150f3d164c24U,
  0x3e01c24cbe16d45eU, 0xbd6da3433de6b370U, 0x3d071ddcbc49765fU, 0x3cf23f063d6e0dc2U,
  0x3cc4bca6bcf290caU, 0x3c87d71a3c15cbd8U, 0xbc8970963c7a672cU, 0x3da4308abc87cb68U,
  0x3e1ddd0ebd1f6528U, 0xbe4992a5bd19a013U, 0x3df4fcfd3d9a62faU, 0xbd4000b8bdd23db8U,
  0x3da337e73dcf0f4fU, 0x3ca39eb33d1f5f05U, 0xbe0649ffbe17e278U, 0x3d01fbe53e8ae44eU,
  0x3c88f49ebe53051cU, 0xbd89556e3d37cbadU, 0x3d6fcb4dbdcb8feaU, 0xbcda4fe4bdf22f74U,
  0x3e5052b6bdf48974U, 0xbcc1edc93e15c534U, 0xbdc1663dbbf00f8dU, 0x3d99484b3de02746U,
  0x3dd04d5bbdcca6d2U, 0x3cfd6eabbc95c86eU, 0x3daf47623d893d1cU, 0x3e1956853db7bba4U,
  0x3cadda01be6b1fc3U, 0xbd1da466bcc4a7ccU, 0xbe3d6ea6be3d617dU, 0x3d87b0483dd7a079U,
  0xbe1050cc3dabf068U, 0xbd99cc083c1aa36aU, 0xbe0ee349be08b676U, 0x3d731e7abdad2cceU,
  0xbc91290ebc404b99U, 0x3d872a47be883907U, 0x3d27a1f03daf2226U, 0xbdd1dbb3bd9f095aU,
  0xbd3b66413c4d4733U, 0xbddd18d3bd726be4U, 0x3b5477f83d7d92d1U, 0x3ccb1c703e0d9c72U,
  0x3df57eeebd28dfd6U, 0xbcafb839bd7c4a3cU, 0xbd126a363de13be9U, 0xbd68f67ebb581358U,
  0x3d6d83693d7c666dU, 0x3d226ed8bc9572aeU, 0x3c00a9b63c02bf15U, 0x3e2141863dbd6367U,
  0x3a367774bb249e22U, 0xbe2851edbd998d40U, 0xbc7a21753c2c8d57U, 0x3cb5d1b8bba7aa06U,
  0xbd99bafc3d906aedU, 0xbdaf477b3d5c093aU, 0xbde0e591bd378b3aU, 0xbc488ebbbda8b0c8U,
  0x3cd600d4bdf15477U, 0xbd9bb1cfbdbace9dU, 0xbc4dfc7b3ded391dU, 0x3d8315a53d635232U,
  0x3cd0a3b8be0d553fU, 0xbe0a6920bd1bd2f6U, 0xbcdc6cd1bc867fdcU, 0xbd0c82773d957978U,
  0xbeaeb9923b00b806U, 0xbc15d757bd550c7cU, 0xbe4ee6cfbe1c7688U, 0x3cc660a53dcfdf1bU,
  0xbe8eb3983d8d3e11U, 0x3d6f6183be005439U, 0x3cd36b48be5a6591U, 0x3d074678be656d2aU,
  0xbc205213bd4ea88cU, 0xbb91d3013d31f3f6U, 0xbc1fc49dbe472884U, 0xbc9b981dbd04af50U,
  0x3de7eef43d22cbf7U, 0xbe0c361e3e222b32U, 0xbd2d50c3bcb69b24U, 0xbddcfc35be7411f0U,
  0x3e0cf588be5f5b52U, 0x3dbf5dcabdc13fdcU, 0xbdb3f9233d75790fU, 0x3c41ef913e763b9dU,
  0x3e4bef91bc1cf3cbU, 0xbd5e63653e725f18U, 0xbd797ac13dfb0d0fU, 0xbd3d9ec33d6d3033U,
  0xbca5279dbd8f5a4dU, 0xbd7b494ebd494a13U, 0x3e7e1e1dbe2f5a87U, 0x3d7150093da151c6U,
  0xbdab102c3e0de11cU, 0x3db79fd9be135257U, 0x3da508943dc25ac2U, 0xbd99eacebe2aa488U,
  0x3dd9ab3c3e3bde07U, 0x3df969873d9cded0U, 0xbd88ed47be592cb1U, 0xbddbc4dc3dd89076U,
  0x3e7cb1cdbda29b27U, 0xbd85a30abcc86ff3U, 0x3e9de8cd3debf584U, 0x3d4ef9bf3e1a319dU,
  0xbbe3948e3dae452dU, 0x3d08e1653ccbdc77U, 0xbe215211bd1be7d5U, 0x3de7512c3d8967c1U,
  0xbc86d8293d3d3e19U, 0xbd972db33d79dc65U, 0xbcf04582be0bb0aaU, 0xbd3c5010bdb2f1aeU,
  0xbdefe5d6bdf6b661U, 0x3d8434093ddc01d0U, 0xbce6b5aebe6d1004U, 0x3caa7d563bdaac56U,
  0xbe03c8c83db3e6ceU, 0x3e0183b8bd317104U, 0x3ba2cc033d81b06dU, 0x3b85fa283df8c2e5U,
  0x3d69ebcabd01ecc4U, 0x3e1deed7bd85ee2cU, 0x3deaa4d4bdd7b7ddU, 0xbe1ab79f3d38254dU,
  0x3dd189a23da2037bU, 0xbdf27205bd008deaU, 0x3ecb8ba4be12c3d9U, 0x3d9601973e445a79U,
  0xbc8bec213db77a32U, 0xbd4e88233da5c130U, 0x3d08f9c1bdb41d7dU, 0xbd1fbd403b972861U,
  0x3d8c51273d1fb4a3U, 0x3db10e3fbcd267d7U, 0xbe2fdf54bdfd28e0U, 0xbd94ebf7bdda4c72U,
  0x3e0060f3bdbdc46fU, 0x399d41e4bd47e996U, 0xbcfd99ae3c5940a9U, 0xbd4fbc9bbc70cfd3U,
  0xbb63474dbdb81640U, 0xbdbdb868bd228615U, 0x3dfb3d463d99b0c1U, 0xbc89b4213ddc2ae9U,
  0x3d8b683abd0998f1U, 0xbdbffb76bd807a72U, 0xbdc3867f3d4fb105U, 0x3d5a57a13dbf98b4U,
  0xbd94312e3d7dff66U, 0x3d089912be6b86c3U, 0x3e18a9a83ce2e9e4U, 0x3a288241bd89df76U,
  0xbd219e0b3dbd10feU, 0x3d4eeb56bda15f1bU, 0x3df5d5f2be2c431fU, 0xbe20d61bbdf38cd6U,
  0xbe2aabc6bd292bb5U, 0x3d8472fabe239708U, 0x3e0c3e503d63e51eU, 0xbd12a7353c9abcebU,
  0x3db862cb3ca1bbecU, 0x3db7d81a3ccfb59cU, 0xbd8241973ce41402U, 0xbdccaa09bdc7a621U,
  0x3d89d816bccb80e2U, 0xbe1d03273ca0964aU, 0xbda8281ebce649c5U, 0xbcd526ca3e0c588dU,
  0xbc7491f9bddc3ff3U, 0xbcce0acdbe2e1da4U, 0xbd447f1dbd413c84U, 0x3dd57c863c8bbee9U,
  0x3c98a1ce3d52252cU, 0x3da9b663bd5e375dU, 0xbe545ae4bd168ff5U, 0x3de9a4adbe0abe34U,
  0x3c2a9617bd1cb96bU, 0xbcab1c71bbd8b474U, 0xbd46428fbdf7691fU, 0x3d9c3666bdc2ee3fU,
  0x3e0a5058be08b2a4U, 0x3dcf870d3da24d48U, 0x3df70bf3bcca70c8U, 0xbbaef3ccbb04b7fdU,
  0xbd8649463e04c429U, 0x3d4885b5bd8d5e5dU, 0xbda22a67bde57a71U, 0xbd3cb382bca6fc44U,
  0xbdce11a0bd6c8ac9U, 0x3d91cac8be1c4eedU, 0xbd07a918bbea1b2cU, 0x3d7ed3e73d56d644U,
  0x3d189006bce4fc20U, 0x3d788e5d3c3aca11U, 0xbc40baab3bf54985U, 0x3d4d59313dd3df62U,
  0xbcfed4513d27bb66U, 0x3c32c3c0bcd996c5U, 0xbddba15dbce069bdU, 0x3d249479be1bf735U,
  0xbd15a28cbe21c65fU, 0x3d7950c6bd0af684U, 0xbe2da67f3e0dd733U, 0xbd044af13d8fd765U,
  0x3da5f5b63e0abb7aU, 0x3d65747a3e3a4c61U, 0xbe01009fbcdd96d8U, 0x3bc31094bc06e7ebU,
  0xbd4f67f53de2ee57U, 0xbb30ac3b3de1bb64U, 0xbd9e16a7bd515c72U, 0x3e0cc2fbbc7ea776U,
  0x3dee8787be25f260U, 0x3d54b6edbbd5b8ecU, 0xbd3aecb23e3c7d3aU, 0xbda2c881be5b4ddbU,
  0x3d3dc3cc3e0a54f8U, 0x3de66d383e1e8dd3U, 0xbe13f1d3be013e62U, 0xbd89d7d83dd7ca94U,
  0xbddb9ef2bd930f6bU, 0x3ca2ed07bdc50f23U, 0x3ccb87bbbd3ed6cbU, 0x3dd6ff08be0b0e2bU,
  0xbd924a673df87a71U, 0xbc274a24be6b1430U, 0xbe13c598be22e2e5U, 0xbda103bfbd59d878U,
  0xbc13d4c0bcc9c711U, 0xbcc9d7f2bc319560U, 0x3df858583b8e9271U, 0xbd4e0a573cd3fa8cU,
  0xbd6363143d92536fU, 0x3c59b095be1396f0U, 0x3da46152be1cb77dU, 0x3ccbd2cabe0b17a8U,
  0xbdd3534ebdbd1be6U, 0xbd2cfb9cbd3aac43U, 0xbd1b3427be176575U, 0xbbb0879abe2d6d5aU,
  0xbd8b11533c2c347fU, 0xbcc9a587bdc278ffU, 0xbc5b4d6cbd0b33daU, 0xbc8767553dcd8c53U,
  0xbca1915c3d6d6e9aU, 0x3de1e6dfbc20db8bU, 0xbd80c66bbe13fd9bU, 0xbb0c9b99bcbdbc7fU,
  0xbddecb7dbd49331cU, 0x3d1c8f5c3d58b7eaU, 0xbb0a00fbbdf66cb3U, 0xbd41c9093d1b7710U,
  0x3d264e783cdc26ebU, 0x3d1e3a9e3d6d24edU, 0xbe0c3206baf2a883U, 0xbc63f1d9bdc059aeU,
  0xbdc88200bca894f7U, 0xbcb949d4be236da3U, 0x3e51f7f5be15e258U, 0xbd313ebe3c8aa1e7U,
  0xbe041e673dc2eb5cU, 0x3d2e392e3c55f7cbU, 0xbe322cbfbe5e8157U, 0xbd34ddf83d0c098bU,
  0x3d1117453df6ca61U, 0x3ca16919be51a56aU, 0xbc69133e3d1d8a23U, 0x3c03be59be1e0691U,
  0x3e0dd684bd16145eU, 0xbcd44699bd09302fU, 0x3e721ed23dc2cb22U, 0xbdfdd6eb3dd56490U,
  0xbd70d46f3d81858aU, 0xbe35dfda3e13469cU, 0x3cf498d5bddd795cU, 0x3d8dde533aeeffcbU,
  0xbd66169d3d5b3e77U, 0x3dc9ddb5be0cf93aU, 0xbdc09a73bdbe5367U, 0x3d9eed8abdbef542U,
  0x3c23772bbcfa8989U, 0x3d13ba26bd3dee1bU, 0xbcb66a7f3d62d821U, 0xbd892d1cbdd5996bU,
  0x3db688bf3ca4f868U, 0xbccf577e3e768263U, 0x3e44d3603e03b855U, 0x3d8afc2bbbea0232U,
  0xbdff3fd7bd719c22U, 0x3df5afafbda943edU, 0xbd83a800bcebba41U, 0x3baff63dba20e89fU,
  0xbe033c4b3cbd7b5eU, 0xbd86c4b9bceacfe9U, 0xbe2fbed13cd7de85U, 0x3e00cbcebe147be9U,
  0xbd0b20cbbbb31d7aU, 0x3df4dd5fbe20a5f8U, 0x3ce15a363cc6c3b0U, 0x3d26e33ebe01eb1aU,
  0xbe9cdd5ebe2fcc22U, 0xbdd67e533da21155U, 0x3c0d3a0cba62acf3U, 0xbbf37d223df4dbdcU,
  0xbe3152313d2375f2U, 0xbeb5fcc5bdddeaf2U, 0xbd9bdedf3da893c1U, 0xbd345188bdb4f7f2U,
  0xbd26749a3d720ac0U, 0x3d38ad49bdae7a75U, 0x3df1e1b2be19c87aU, 0xbdc95effbe58c02aU,
  0xbd352527bd3921c8U, 0xbca72eed3cd10307U, 0x3d98d0f4bd8daa5bU, 0xbdac071bbdb56488U,
  0xbd4217ba3d0cc229U, 0xbe12d343bd998949U, 0x3c6ef0d23d8d7accU, 0x3c09ea983dfa0657U,
  0x3d8d01b63e75bed9U, 0xbcf28b1f3d782317U, 0x3cae876bbd89f4dbU, 0xbe30bc213d29d697U,
  0xbe7373c7be15e3e9U, 0xbd22fbc43a7623bdU, 0x3e0826f9bd862202U, 0xbe3455cdbe0ec8bfU,
  0xbda9c65fbd557cacU, 0x3e46545abd45ed56U, 0xbdb681debd40b48aU, 0x3dc7f854be2ad135U,
