/**
  ******************************************************************************
  * @file    network_data.c
  * @author  AST Embedded Analytics Research Platform
  * @date    2026-07-15T20:14:40+0800
  * @brief   AI Tool Automatic Code Generator for Embedded NN computing
  ******************************************************************************
  * Copyright (c) 2026 STMicroelectronics.
  * All rights reserved.
  *
  * This software is licensed under terms that can be found in the LICENSE file
  * in the root directory of this software component.
  * If no LICENSE file comes with this software, it is provided AS-IS.
  ******************************************************************************
  */

#include "network_data.h"
STAI_ALIGNED(8)
const uint64_t g_network_weights_array[17845] = {
  0x7f066a70be4504b9U, 0xfe4647c0ec190918U, 0x8fa7c5a0cd04335bU, 0x5b2f7a064002c61bU,
  0xdb7f603d14b3ebfeU, 0x56535a1047e9655bU, 0xd64d4125f6386b2bU, 0xe17a254323e917e4U,
  0x4be2d0bad72b43a5U, 0x81c304a149014e09U, 0x7f26656885af9ccfU, 0x4f344c18ca2954deU,
  0xd9c62ca1dab931ffU, 0x900cdc87f7b541ddU, 0xfb7f3119d98211e0U, 0x73c3ef49c528432fU,
  0x4e466ef05c073375U, 0x37cf4550ca68b290U, 0xea42e3457f27a0f7U, 0x1699e169308957b4U,
  0xf825fb7d465ec4c8U, 0x757f7b442ed8fed7U, 0x5ccf6a7122114c5eU, 0xfdb72fed24e3cf0cU,
  0x41385345343ef952U, 0x6ef4fe26c4b0204U, 0xe97865197f06d20eU, 0x51bb13f882df18dU,
  0x7330b99bd81aa9b5U, 0x13507f3837424b7cU, 0xc2ab02138a6f603aU, 0x45badc0f3e7232fdU,
  0x273cdf267f43112cU, 0x59defa0cc6eb3202U, 0x16deb518f7a34273U, 0xb83948c3ccce38beU,
  0xf5cac40a2a8150daU, 0xe3482e7f56f15ba8U, 0x24c36fed4653385fU, 0xc042ff1d05eced4cU,
  0x286a4a1cc3fa25e6U, 0x615d203157217f6cU, 0x57f3184b27661f28U, 0x1d0b11e7511de44aU,
  0x437f234c2efe76e2U, 0x43582b5fdf46bcd0U, 0xe4fa89b7eb973b6cU, 0xb7ba18d681a5f196U,
  0xadb916d3fa6e56feU, 0x54e3f25e44e4fc0dU, 0xfadd4a113fea6d1aU, 0xfda9f33ece0732b1U,
  0x12d197fd81bb8aecU, 0x273f9946a3e6c163U, 0xffffaf9b00001577U, 0xfffff9bd00001a8aU,
  0x16ccfffff644U, 0xffffb4f9ffffcae9U, 0xffffda12ffffd73bU, 0xffffd3a90000445cU,
  0xffffe3c7ffffc04dU, 0xffffe45b00002703U, 0x4e06e57f252c3d05U, 0xf75b4e022de440edU,
  0x3636cb7345482de9U, 0xeb4a5f4643f623f8U, 0xf4f5b27f96f2fd24U, 0xc5221126d1e10ee4U,
  0x4edbda3558fe3c51U, 0xc3f10be13a001cc9U, 0xf0ebf551c608f047U, 0xbf8e16373d2038deU,
  0xf6e6ed55e4fd1604U, 0xbea3ecccd89801e9U, 0x802e1dfedcdd706U, 0xfdf914d70c2ef1cdU,
  0xfaf03103ba1b15e5U, 0x27eadbf7ebfbc509U, 0xe80ad4d78c032501U, 0xc292c3e7d7a8c2eeU,
  0xe71238032e2b1b00U, 0x36a92adb3524e003U, 0xf3bdd5c4de3ecefdU, 0x2de9df12ed5798efU,
  0x29d000233635eeeaU, 0x1c341705e44ec946U, 0xd21cd1cfbeb5fd09U, 0x3734aca9b2e0e3ccU,
  0xda08f639d5d4cd81U, 0xe92499ddda0c3549U, 0x2ef2295147d7e81bU, 0x1934c9e1c8c51a30U,
  0xf30f3546e3932dd4U, 0xef31b4c7fe02423fU, 0x3dfe4456370f3dccU, 0x3a0bfe4e3f0a1c4fU,
  0x4a101a592f045dd4U, 0xcdf9fb385e2142f9U, 0xc0c521f6e8cdfdb7U, 0x207f89adc72ec220U,
  0xb7dadd2f0feae9faU, 0x130dc10faf6cff07U, 0x1acdd039fa1019b0U, 0xe61b060f13353a03U,
  0xeace1f10d4da1918U, 0x2351a8cb0333fdefU, 0x40e1ea26ffdb20e9U, 0xe05015eecd0e3342U,
  0x2918e152d6231b08U, 0x2315e315ede60e04U, 0x5df23f907602846U, 0xf031dcf011292c2bU,
  0x22e7d0e937540949U, 0xf23d303fe1425d0cU, 0xf214370858f92649U, 0x4d8635231301e3eU,
  0x11e04c75ffeea14U, 0xddec07d300eb10f4U, 0x1efb221cfb30e256U, 0x182463311808ff1dU,
  0x533e23372fc9404bU, 0xf3d63b33f1d0fd46U, 0xcee0cd5f3191fe8U, 0xd701fbe2f230f8f6U,
  0xeceb3392244ec6deU, 0xe3363a2624e34203U, 0x24f906de321c2ff4U, 0x8e907f11902231cU,
  0xf5e5390f273cdbf7U, 0xe729c1d9d53bf6e9U, 0x18b01cf5fe35ecddU, 0x1110edb90242ecf2U,
  0x13ea4ee17f601e60U, 0xe6f5109f9df07f6U, 0x619d845f12213a5U, 0xed77cce9fa29b6ffU,
  0xe1bf1a21ef7ed2e6U, 0x1e7febaaea1dcef9U, 0xd3d708df2143cf32U, 0xec59edb5d61fedfaU,
  0x1dfaf006d4d034dbU, 0xe209cb12f0e6e128U, 0xe3f8f72ca4f627a6U, 0x1933c5e6f4f7f4f5U,
  0x110c1de3ce20f4e8U, 0x2417ccd6dc0fc8e7U, 0x1c2e3b2811223919U, 0x605562640c71f18U,
  0x433c281afce4090cU, 0x21b507403dede938U, 0x232cee3aee0127faU, 0xf8020e2312effe32U,
  0x26f237fb3c53f436U, 0x1fa3731e9e45135U, 0xc2510f90323162dU, 0xf0a0e81c184ce0d2U,
  0xd6ee0ac0113405eaU, 0xfbf6e8edd64ad717U, 0xf8f0351d1c662849U, 0xd9172c36fb0df3dbU,
  0xc4ec1305ce09d9d1U, 0xdfd0bc2f960c0ddU, 0xac6152c2a1016ddU, 0xf846e4fbf05a1b24U,
  0xd8f8edfd03e6f612U, 0xea2e01ef112cc3faU, 0xd6e12d2940dffb03U, 0x257f08f0c71b3d1bU,
  0xf091c5223ec23ffU, 0xfb47f6070a352a52U, 0x45221a4bec1b4c31U, 0x1df63e581e302016U,
  0xe119ecd61436d8c1U, 0xdfe812cd17550803U, 0xdffcf5eff2dbcdf7U, 0xf1311a2cfb312828U,
  0x426363b35130f2dU, 0x2aa6ce4a526a04ceU, 0x10d9d3e9a8fecfe9U, 0x395dbf0c150febfU,
  0xd20e23ce11f9ee3fU, 0xce0616b9e24a2eccU, 0x32f634ea2ae03ffeU, 0x2cdfc131437fd223U,
  0xdf15b902b6eef201U, 0x352db5bada37abbbU, 0xd8d1170a1ad3151fU, 0x1f3d11bff9ffeaf6U,
  0xde22d84ee8ec0900U, 0xf239fae5ff2b2f24U, 0xaf0c14fd4f9eefcU, 0x7f52d00210d0dU,
  0x1fac43ec7ca06e3U, 0xe9e506fb0f1e0232U, 0x1a090e2525192800U, 0xfa06010703073a22U,
  0x112b05fcfc092003U, 0x1dca0b3437f7fb18U, 0x2bfdcc15aee7f51dU, 0xea8b1b03270307f0U,
  0xedfe26d41e18f01eU, 0xe2b117fe24150207U, 0xfb09f59addd5dbf9U, 0x1b8b01e0231dddf8U,
  0xe70d17aecf0c0303U, 0x1581ddfbf5e9d7d4U, 0xf34d10342a2f1adaU, 0xddd9ed181bec10e7U,
  0xe3e00905161fffdeU, 0xeffdb9090711eed0U, 0xe8cef8f62934d610U, 0xc87bde19ef5dd9f4U,
  0x432f0b0419344be4U, 0x1aa71324f63b1be6U, 0xe5e5f5f8b708f39dU, 0xe0c2d805ee22cceeU,
  0xd20f3abc1ce9f71bU, 0x147f1ac72360deddU, 0x38283a18f41c4607U, 0xdfbc02230106f3e8U,
  0xf8dbd80de4050adbU, 0xe1ec0ae01527d2cfU, 0x2a27350dfc1adbfeU, 0xa6a0cd3f01afefdU,
  0xc1dff600e2400600U, 0xd003d92d182a1d1aU, 0xfec4cfce002ac0eeU, 0xe716ffbdd555fa19U,
  0x5e13e3156fbf256U, 0x27fe4221b350ee8U, 0xe33fdc17d40104fdU, 0xe5d3fd1ac42afc1eU,
  0xd8ce1add28f5d556U, 0xda05f4e9ea1b1e06U, 0x2d4f6e142201e15U, 0x320df718ce1a40faU,
  0x4328ca6d14cb3d09U, 0xec21ee1b32ff1f4bU, 0xe4e71d482f19dc14U, 0x223630ede729203dU,
  0x27d94e004efaf851U, 0x605f2261cfa3d33U, 0xef283dbf107f0f5fU, 0x10f240ed2322cb16U,
  0xf22006aa1e73d05bU, 0xfdb92e261e32d9baU, 0xec1935cc3c56184aU, 0xd8c5f7e8f953e7e1U,
  0xcee83202f8e010b6U, 0xde2ac3defad30101U, 0xed1c2a21de3edba0U, 0xd93e95d6c40ddaffU,
  0xc5d80213173513aaU, 0x2a7100b8ca35d711U, 0x372fdd04c7dc0bf4U, 0xdb46fef031d83536U,
  0xf2261730f9d8f9c8U, 0xd93cff44f1f3051cU, 0x163cfb2a132017ffU, 0xe110042e2301041eU,
  0x1fdc814e19cd0f66U, 0x13192e2afd2b2d35U, 0xd1fdb260ee181b1cU, 0x193e2a08d0f22c2cU,
  0xf5e0aa2a1c1ee53fU, 0x2241f922f5f43101U, 0x1009b34be8432630U, 0xdb53390309131d1cU,
  0xd205a63ef30a0efdU, 0x22e0e82bcc2b0fe1U, 0xdcfba41eacd013f1U, 0xe2f1ebeddd1ef6dbU,
  0xf4f5dfed2b4eea3cU, 0x257b1d00e4fa132bU, 0xcf0eef2ff532f34aU, 0xd9d5fa1af221e9cfU,
  0xc9dee6f00a2ad145U, 0x17fed40bcc0fdef3U, 0x131cde43fc720f0fU, 0xe37fc5cfc4331620U,
  0xece4cfe6f669c92cU, 0x105d2de6d8ddf823U, 0x2a0b23ec562a0055U, 0xe94f1f1c1e22eff7U,
  0xd705e921c5c10921U, 0xfe17cde608f00ff2U, 0x1be9bd43f9151b26U, 0xf15104f5c8eef72cU,
  0x19d1e60cfd45de25U, 0x132707d1f9e52f07U, 0xf725fc1050113007U, 0xed11371b0d0f1d3dU,
  0x52d0c462ffb201bU, 0xe90033011dfe17ffU, 0xd26e123edfeea09U, 0x1729f2e714ee25U,
  0xdbcd19101f4f1329U, 0xff7ff8c6d1091524U, 0xfe08f32a4d1808d7U, 0x948fbffd80bf608U,
  0x1ffd42da4118d216U, 0xe72112e01110f118U, 0x1709ec21ff130516U, 0x2247e51ed8dc3f2cU,
  0x1a1210f812fb0bd8U, 0xde540f24eb0cf0e6U, 0xe00704bf1a44e4d8U, 0x60506d7dc17d6f2U,
  0xc202b19162f232cU, 0xea110211f1df3e28U, 0x182ef134f2e00531U, 0x19c3e932f11fe9f3U,
  0x7e2fdd92f0613caU, 0x6eedcf0e30a0808U, 0xe8143820c2120ab5U, 0x1887fc08021fb9d7U,
  0xdad0d3b218aee5e6U, 0xcf42f1cbcbe94801U, 0xfe271d482a2b49bbU, 0xe844e93a2bd64305U,
  0x19e8eac8b6dd22baU, 0x1b92d1050e42dde1U, 0xff001e0150f1fc3cU, 0xf15517c4ecff424bU,
  0xef0b463822f6312fU, 0x7ebf3f23b323636U, 0xbecdbe2c0fadab3U, 0xe8aba9f82bf6dbe3U,
  0x40eef816faf7d5d9U, 0x207f3101d9ae4af8U, 0xf337ec160bebe926U, 0xfef7e40c250f0ef5U,
  0x2518caaf3efcff68U, 0xcbba39c5341ac020U, 0xff3db052f172d7bU, 0xba20db0cda271609U,
  0x5309d36dc6c3fe1cU, 0xea44f942fbcd4b2aU, 0xbf52602b0eac0baU, 0x30afefd6c4b701fbU,
  0xe9dff1cae97ba645U, 0x300a21ec0ffd6713U, 0x645fcd0d7023f906U, 0x466f21b2cb56c2eU,
  0xf31018f03ab918c6U, 0x2795a703b23fd7c3U, 0x21c30481fa60ad1eU, 0xf806eccecbce31e1U,
  0x3d2410c07f1c4e58U, 0x3b0b28223137d81cU, 0xf41cf22015eb1f30U, 0xde4b041a29f10b17U,
  0x1f0ffa20f90e17f0U, 0xe5f301fff1ee3425U, 0x10a0042e901ec02U, 0xdfeb092829c80aebU,
  0x141af2030b18f341U, 0xdce84123fb1401fdU, 0xef180ad1030a1601U, 0xfcb53c12fbdbf5daU,
  0xe7080203f3efde01U, 0xf081131713fac0ceU, 0xd0f20dbd045107f9U, 0x1e1af9fefa2fcef6U,
  0xcbdf08d40a2cfb44U, 0xbe600dce10ef4d3U, 0xfadc15b5222fe033U, 0xdfea0ccb0101ffe2U,
  0xa2bb3412c010aa2cU, 0xe626dfb6c85ec1a8U, 0xcbe3fc2cde55bb14U, 0x2222150bdd7f2ae0U,
  0x5ee0a3551511521U, 0x20230a3429253f3dU, 0xe1cd0703bd30c11cU, 0xd93ef5c3cd62e0e1U,
  0x19f5021edb4abc03U, 0x161008d8d33f111aU, 0x1723f4e61e31f508U, 0x954f832ee0029fcU,
  0xd8bd2ce9fa1ea449U, 0x5f7f9b2cf37c9c7U, 0xe8bcfff30900f61aU, 0x1c3fe8c60d6725d8U,
  0x1d0010eaed39d136U, 0x23031b041d3b21efU, 0xebe49237eed9f83eU, 0xee3224cd230402U,
  0x8edbb0cdad8050eU, 0xf4c1e713001802feU, 0x10d8a228e1de1301U, 0x9062917f2f00adbU,
  0xe5ed853bcd021563U, 0xeea04fec02206e6U, 0xfdfe810fc103fc3aU, 0xfa24141ac925290bU,
  0xd5fcce23d0d8ee26U, 0x170dec27f42405fbU, 0xe018ba17f1fe035aU, 0xe9361725c51df019U,
  0xe1d2994a05ebd436U, 0xfef3390fda2f36f6U, 0x1f0dd41bf52b2359U, 0x71130ebdd012628U,
  0x28fceaee202b2c5dU, 0x167571d19f43e1eU, 0xe0f22a465433e569U, 0xbf35e08051e1220U,
  0xe91bf81f2b7f2672U, 0x19065f4441fd0adeU, 0x11e3cc7004a13f4U, 0x160b0cde00e6e7c6U,
  0xf119fcac1961d3edU, 0x3a729012308e2b9U, 0xf0004ba21f44e20fU, 0xd20508f436e6e6d8U,
  0xfe0f04bcee49e6ebU, 0x11e715281cec0ce3U, 0xe09f1ea0d31f7ceU, 0x122019d4ed02eacdU,
  0xda0129d02735e2e3U, 0xeb6005ccc61aec0bU, 0x30fcc30fcfdbf012U, 0x11221218cacfe1f4U,
  0x2615005151c01d34U, 0xffd6020f06a2c4fU, 0x2a33c05450fcfa77U, 0x44423722dc1508ebU,
  0xd6ea92dfe640d470U, 0xe50262c6bc0c1de1U, 0xd7dc0de51568337fU, 0xd3296138eaf6213bU,
  0x1e3b4292c58f761U, 0xbd1153bf315f5f8U, 0xb48d970adfdd97f3U, 0xbf9c5aa998bf0b2U,
  0xf4f69d1749d91e0aU, 0xd4211610e7e306f9U, 0xc9b8bc259fbed929U, 0x1a0d0336db46e61dU,
  0xf64dc8ee15da62c9U, 0xcce7d5f1e0403d59U, 0xf61e41c2aaded2d8U, 0x4c6ab14cc22abb6U,
  0xd2d754f23f49a43aU, 0xccff33df10f1e9e4U, 0x5d0dd43e0b1afdefU, 0x8d6e0581b3dff01U,
  0xe752de2ab4410ab6U, 0xe98510e45350dfc3U, 0xd8d208f00b0d1d30U, 0xf5deac40049fba5U,
  0x42312aee7f2ce72dU, 0x1818573feb091c6aU, 0x51fe51cb9012ed6U, 0x2795ad46f1d1b122U,
  0xc5ec169bb808d7a5U, 0xcae7c5c5fc1db7bfU, 0xb6bac946cb9dcefbU, 0x13ecd0aef22b0929U,
  0x2cd3e631d3c2bf04U, 0x3a44183510bb4a5aU, 0x38120134d40a1e19U, 0xec78e22f1df65357U,
  0xecfbb7c51e981416U, 0x2e100dd821ff511cU, 0xceccb82bd81c13f2U, 0xcad9003402e751fdU,
  0xfe38e6210cdff518U, 0x32c22c03e10eff3dU, 0x29dd2df038c708f0U, 0xfdbcf00736384ad7U,
  0xfdc3b41b280afe26U, 0xc810f1e2efdd0feU, 0x1504f9d301fade4dU, 0xfe831d1fdc0427dcU,
  0xf125471965e5e71eU, 0x193aee1338002033U, 0x361c60350320e9f1U, 0xf8230dfb45b0ec05U,
  0x181ef832d90e24dfU, 0xe708f02e2d02f348U, 0xf7f139812ce3ebf2U, 0x151cf6f210d502f7U,
  0x1523379b2e0609d5U, 0xdabb16e429eb00deU, 0x13b40cdee0a10f1U, 0x1ac8343a02c8211dU,
  0xc9d4449a3226dce1U, 0xdef1d2bfe511bacdU, 0x1f231882f26c002U, 0xe5c919f71b13fedcU,
  0x6201caf2f2628edU, 0xebba0aff1c1b06caU, 0x26afffffad1U, 0xfffffc67fffffcedU,
  0x4eefffffe68U, 0xfffff8d30000040fU, 0xffffffeefffffff2U, 0xfffffe29000002a3U,
  0xfffffc2cfffffc54U, 0xfffff748fffffe68U, 0x768fffffe2bU, 0xfffffd74fffffeffU,
  0x2ce000005f2U, 0xfffffbd4fffff97fU, 0xc2d669d8cd1a23d6U, 0xd5f58b02c652fcbfU,
  0xb3d29ac7dd3a00c3U, 0xfdb10b10f13206c5U, 0xd3e208f1d74c15f2U, 0xd136d3d225f7ede2U,
  0x1d1ef3d440bee5e8U, 0x29c207f4d8fb1f18U, 0x2bd80cd049f4f408U, 0x149edce3bd1b7cf6U,
  0x192a072b31c512c6U, 0x451dedde7ff2ce7U, 0xf742c03a8f8b817U, 0xe6eb3cdd04bcda62U,
  0xf20f41e234e29141U, 0xee2463becfcaf10aU, 0xd5f7ba07f5210448U, 0xeff01ac6ebb2ce02U,
  0x1022d5bafd1be127U, 0x440f531603fd0825U, 0xe4283e1c0efe3e13U, 0xf9584902e381f008U,
  0xbc0accb9fde3e45fU, 0xf1eff1072cb4c305U, 0xd536e9e4475661dcU, 0x561bf418ac1dfcdcU,
  0xf300e509ec113aafU, 0xf3e344e42617fa10U, 0x9f1f404ef03d01bU, 0x1428e9daffe9e7d8U,
  0x1d0d071a33cbdb0bU, 0x24d12cf10b0434f8U, 0xf9175af426f133dbU, 0x1ccf24d8431d112fU,
  0x4c3c0d2f39e514dcU, 0x1afd1a46f2421e14U, 0xcddfedbead904d9U, 0x14fee3bef0c8c2e5U,
  0x2d1eb5cabedcfaebU, 0xdc19d1c6cbd4e312U, 0xee28481830f2061aU, 0xdfc14edf29c304deU,
  0xfc0606bb4944fc1fU, 0x1f61f50cf01c2bf2U, 0xfd24f8edea32e7c1U, 0x2007c2c3f611d9e6U,
  0xf5dfbdf7cdbed4d3U, 0x12e2e9c7ddd512c5U, 0xeed090cd3bcf5faU, 0xbfe5e7f0fb0f0006U,
  0xf6e310caf6d613fbU, 0xe3f3b1bd3303e92cU, 0x577fd9fbb9bb2d41U, 0xc0a06d90513e9b6U,
  0xe3f303e04d34d9fbU, 0x2c36bc08f3e05335U, 0xf8f6f8d30c170903U, 0x21f7051fdcd4e41bU,
  0xe7f946081fb5fa45U, 0xf2d80ddd32fcf6f4U, 0xf225190bfafcd7f0U, 0x3574dbea03e23effU,
  0xeee21ed5fbedb0eeU, 0xe314f7fd3918ffdeU, 0x27210f3bf5d87f35U, 0xf61ef7c0ec1a08baU,
  0xebfb02ca13c7b5dcU, 0xcfe3db307decf08U, 0x15f826b607fb2eceU, 0x1befd4d90c192323U,
  0x14570004dfe7fb30U, 0x10ff200ff3e3e8c2U, 0xf7fc0603fb0617deU, 0xfa171af432f25af3U,
  0xe9333404c149bef5U, 0xfbd919cf1cd90b16U, 0xa0a2107fcec27ebU, 0x1fdff1d6f7242f03U,
  0x20cbdf14f518f1e6U, 0xff19f726eff8d506U, 0x340bf20ad9ca36faU, 0xfb11d0ce1adbe9faU,
  0x1518daeae90cd315U, 0x24d602b2320f2134U, 0xf8f1f90b3d1900fbU, 0xfb26f9f7d811e6c9U,
  0x2b1bdebb34152815U, 0xea012fdde70effddU, 0xfae42ee008f4ec02U, 0x1321feca1615d9fcU,
  0xec130f32eaea2bcfU, 0xfafe062c067f2809U, 0xc9cff6d812ddc7e0U, 0xcdc70f1bf5f8fbf7U,
  0xf1151c31c42e2bf9U, 0xef10eeda02e1f7d5U, 0xffe2fed32cbef8faU, 0x1cf4fedb0ee3001aU,
  0x1de5fd0f20d9e305U, 0x2685b2382ffb0918U, 0x1ce20df6f8bb13edU, 0xdd06f811eaffe500U,
  0x9a1e32cd414da00U, 0xeff1d2831d1f022U, 0xef2505febb2d2402U, 0xff05cb3fd906f2fcU,
  0xd70f3b2709e1191aU, 0xebf3f713db0b2401U, 0x1ad3122ab8cb2d00U, 0xb48a3cf939221f29U,
  0xff0024ee3701f341U, 0xc8d23b1ac6e70301U, 0xfb0c052733245d16U, 0xc01ef70c02f7dcc1U,
  0xdfa008af3d3ba6e3U, 0x8f3e026ed851a09U, 0x240497db192e14a9U, 0xe8eecff3ed221633U,
  0xc03dbe1d51ad222U, 0x16142286e6091c22U, 0x17baf1081a331102U, 0x17234523e303e101U,
  0xe03024ea98ead59dU, 0xf24bd8181db581fbU, 0x38f8f8200d97564bU, 0xc1ea07cddafb26eeU,
  0xda50c3af17b3f2ccU, 0x10e0e5d0c610fe1cU, 0x38e714a63ed7f930U, 0x1abff6f56b199bf3U,
  0x70ecd6f9c7d8dc88U, 0x3b02e3d00a17b317U, 0xefe2340e7caf11fU, 0x2144354825bf2361U,
  0xc2ca71a50007d3feU, 0x2b503c3c00364643U, 0x423d30e6172edefbU, 0xd33644f47edaf3fU,
  0x61250cdac16ffc6U, 0x1532d5d9d3e34c47U, 0xc2133ea132bb7432U, 0x481f127251f32e1U,
  0x30dcebf2ffc2cfbbU, 0xef148714d8e716b9U, 0xc0ed2bbda2dfedfU, 0xdb10249fd02d0e2aU,
  0xe501e3c50d87a216U, 0xfe00f5dd16f51931U, 0x36fddba1a71acc59U, 0xfde2fe611866fa9U,
  0x1ca2abffee3b272dU, 0x492cf8d1c6bfaad4U, 0x3ae8cde412cd3adeU, 0x14cca8def5aac60cU,
  0x13fbeac8cfcac43bU, 0x2dd110bc0ac0ecdcU, 0xf129d50940e9d4e7U, 0xdf0e8af9c2c6cd50U,
  0xfdf516cf23c1131fU, 0x21dbb5dc202b2c02U, 0xf4fa2f122ed4be09U, 0x130039f2ec23eb28U,
  0x804ebce451627deU, 0xed0acffa22cce09fU, 0x2a30d4e7411ad045U, 0x33a3fb1bd249bff3U,
  0x25b4be0f0e9513a4U, 0x1bffd0f3dd3801f0U, 0x2ffbd711d503c440U, 0xbea22c45f0c7dec8U,
  0xdf48f220ccf7b1c1U, 0xbf30ee5aebec02dcU, 0xae9f4bfc067fe357U, 0xf4c840e438e5d2ecU,
  0xcac6cde15acf9e0aU, 0x2b08c5cf0920edfeU, 0x1cbd0b8656d6223fU, 0x2895ceb023dfaf06U,
  0x361ec1170ce905aeU, 0x13eec5e41537d620U, 0x1dd2a848c7ebaa09U, 0x1704e2d8e9f7bb3fU,
  0x32fb6e2be00b1602U, 0xd13ddb51babf02edU, 0xc72b4113d6181f71U, 0xc9d567c003fa48f0U,
  0x1b1b1ddd3030bad9U, 0x3f0e332f1e1af9f1U, 0xf0e537140af201c6U, 0xa9800db0d050032U,
  0xf6e5481d45f23fbbU, 0xdc13d716fb2a6100U, 0x21f834f5fbfcd131U, 0xfdeffbf427d924f9U,
  0xcde4c7df300a0e15U, 0xef333ddff51bf7fdU, 0xf40717e8f7dadf12U, 0xffcf0ee2fd020e2U,
  0x1403f623e0f0a608U, 0xc4b5243713811657U, 0x207641dfa5d4f23U, 0x1a2a1c02d4d6de15U,
  0xc1e3b9daeafdf325U, 0xdfd51cda0913391cU, 0xe70e16070bed59d3U, 0x7e9e204c205d6f3U,
  0x22f8fbf0e6caf0d8U, 0xf3264005cad6b40dU, 0x61beba944b90953U, 0x3db4527390ffdfaU,
  0xf1d4de280dd438dbU, 0x81ededef1e7d10cU, 0x17d7ebf2ebb451c2U, 0x33da9518fe0951e2U,
  0xebdefd18cee80edcU, 0x2617fdcde8b632f2U, 0xdd422f8d11a0a03U, 0xc511241d2ce61dfbU,
  0xba19ef2eb653d1f3U, 0xf1e6f7eac4f7e904U, 0xf3e4e7131ec329dbU, 0xbf07f82dd02efba1U,
  0xd9e10af2d3112111U, 0xf1c3e0d6fddb06f1U, 0xe7e2dd149e1e269bU, 0xf40a2b11e1f93cf3U,
  0x3d9d4fcfe4a0206U, 0x1d3bbf42324fa30U, 0x1aaff024ddf52a10U, 0xd4c6e2f10a1c0adcU,
  0xf1e8b0e3d6fc38feU, 0x2ab7d1eeef0c00daU, 0xe4a00f22e543f6f4U, 0xf30511f1d3da13ebU,
  0x4e70e2820054320U, 0xd218ea1c0a54f0e8U, 0x3af706a94ec8e114U, 0x31337da190ce81cU,
  0x12c80ffce248c9f8U, 0x291910bc7fd34d29U, 0x2d3f12427cee422U, 0x29ee1e19d126b3dcU,
  0x500802cd35ae1318U, 0xf66f112b22eed934U, 0xd17082613d53e5aU, 0xfd115427f33409f8U,
  0xd61c2dc41ee0f2f6U, 0xce099aacd2f0e0f6U, 0x16b4140b2b19072eU, 0xe24748de01c0d604U,
  0xf2ced9f0ff0efb1cU, 0xe2de0c3a34f859d9U, 0xe3861e4c6958832U, 0x102100af40db4067U,
  0xd2c34b2b2f093a3eU, 0xa7f0ceb1e0a1cde5U, 0xcfbed7cccddfd4f4U, 0xadafe40bcab4fab7U,
  0xd6a400e3e2c8fce3U, 0xefd1afc7df300be9U, 0xfef7d0d91abe5da9U, 0x251622dea6f217e7U,
  0xfbdc170305e73c4cU, 0x89e72b37021cf73dU, 0xf9811514ce3f26cbU, 0x1916f7efbc3de38cU,
  0xb8f499f0da2339d3U, 0x24f20626012943cdU, 0x1deb1147c9674ff0U, 0xebe715e7d0dc57e4U,
  0x6e00db23102a5ecU, 0xf9131ed01ad3e736U, 0xf9eae90d14fc3850U, 0xf34333ac3e0008feU,
  0xd0e9f0d1e33cd23U, 0x2cf6f3c22ffed94cU, 0xbe0c5e06fdf1571eU, 0xdffdc411b83b0b02U,
  0xf4f6bfdaf736c1f0U, 0xe0e33623c4e812d7U, 0xa7cdfd32117f0f0bU, 0xa200d3ba2b211bc8U,
  0x1db8334acae06ec0U, 0xed0e2b3214584fb6U, 0xcd06fa13df3354c5U, 0xefe9bfca08f0192aU,
  0xe6d02732d702149cU, 0x2f2ca0c2e2f81835U, 0x3fc5d33feb3e331eU, 0xf9da0bc609cf2bd6U,
  0xc831bcdf09edfd00U, 0x1fe9eac8b4fddc07U, 0xe6e61ffbe0c0fe1aU, 0x2cee2f0808c77428U,
  0x29e9170bd8bfd71cU, 0xd4ffc3b3e6d9bce0U, 0xd130a2536a65c14U, 0x16111fe50fc8e1dcU,
  0xfacec9e716d03035U, 0xf7dbb804f6f3bd2dU, 0x7f34b3afde47fdaU, 0x26dbe852d60306dfU,
  0xd305f5ee2b0dc931U, 0xf2e119df06db542fU, 0xc7b23c4be21616e7U, 0xde26c0cbe2f9a93aU,
  0x11f4731ede0b42b9U, 0x4628d7290e0b4e1cU, 0xfe07e4f4faf9db27U, 0x35e0ddf801e6392fU,
  0x17284337f3eee7edU, 0x310804a4fa01e51dU, 0xaf408eb2510cc21U, 0xc8ea2f0be7db0f18U,
  0x37d7cdc617d9fdfcU, 0xed2021b7f52c3fd9U, 0xe84a1cd912b13ffaU, 0x1c141a06ff2220d1U,
  0xe91e0bc709dfee24U, 0xeaf414e2f7099716U, 0xdc1019e812a9eae1U, 0xe119d1dff5f12acbU,
  0x3234b3c8df1fe215U, 0x6e9dff90cc43404U, 0xf24c4ace01d3defdU, 0x6fb1a972c178131U,
  0x30131db0ce6e502U, 0xd81b3c21fffa18d0U, 0xc522a6e3e7180b70U, 0xbd0d43161b2a02fbU,
  0xaaa1ecc31c220be1U, 0xdee6ef05150d16e7U, 0xc619d442d0353491U, 0xc6294bcbcea1d2f1U,
  0xc5c016b11d23e635U, 0xec1330b25f4c2faU, 0xc42008bb13ead5b4U, 0x223bbb0202bc010fU,
  0xf81712200c232fc5U, 0xec9b36fb212336f7U, 0x3005231439dbfda8U, 0xe2360a2bce1e3ac7U,
  0xf232060734f9b9dcU, 0xd5ee02b723f11224U, 0xec0d3612e5f6c62cU, 0xd43423de160cf2afU,
  0x13e4bde3fcfaf4f8U, 0xce0621fc18025ab0U, 0xd09b2dfc3c061afdU, 0x559011d390d2bb4U,
  0xdf2fee64d12d389fU, 0xec01dfeae4e1f102U, 0xefe3e9f202f31113U, 0xe203163113e12cfeU,
  0x6f217eb5411d11bU, 0x1626e1e60ecc04eeU, 0x1c1ea4e0d4f11603U, 0xf51b0b49cffbf627U,
  0xc381031646e323feU, 0xf5fb0e05e411a113U, 0xf513d011e1e0f5f2U, 0xc2ed1b00d90b0847U,
  0xe11e4e0ad8271cceU, 0xd5d1baf33aeedef4U, 0x1826fc31edd01726U, 0x2b1008c822e3e8bdU,
  0x32fbe8f5180cdc0fU, 0x33c7e4243accf81dU, 0x17f7e9f72a05defdU, 0x6daec0da3f7da0bU,
  0xf8d72100fbf6e31dU, 0xdd62211063420feU, 0xfe1d01e5e1f6d7d1U, 0x13142bfbd8f53629U,
  0xd2fb30ae17fac0d3U, 0xe3a81ddf3af7f808U, 0x2b24f607f310e701U, 0x3a0cd2d81dd9f8efU,
  0xea1567fbf7044ad8U, 0xfa03c704ff315443U, 0xcaf315fda73f3503U, 0xd9de5bcafbff6025U,
  0xfd2fd4fa32ca18cdU, 0xbcf789fab610c98bU, 0xeed6eee7491f27U, 0xf31f081430b51513U,
  0x2011d30a1e45fb04U, 0x2ebaf72cbb4229d4U, 0xc4efdc3ed11623d0U, 0xfb1e04c5813d3bdfU,
  0xb90cdebc31236e3U, 0x18da1733d00d36d3U, 0xcb210df02a3407fdU, 0x210f3104edfff80fU,
  0xf9b1317101cc4efU, 0x37e2e3d9282f0732U, 0xfa0bc8c60a00e519U, 0xd3eb19b80edeb129U,
  0x2a17eedd26be3318U, 0x11ec3ac236a0e5d9U, 0xf8a9dbdae355d7c3U, 0x27f4c7dc47b22451U,
  0xebe1dc25e6c52b15U, 0x60b010dd967b8eaU, 0x7f4e8ced9f2fc04U, 0xee3b57ee09faff32U,
  0xf2a30c1f13512f19U, 0xca3c091e2763fe24U, 0xe0031b2817ed2bdaU, 0xf0c92d54df1a3ed7U,
  0xc8fd2fef5309fae0U, 0x1add04c43e030513U, 0x250507cee1d714ceU, 0x18d1d2f7140d37d6U,
  0x30cfe60ecb3036e5U, 0xd8bfe10be204f5edU, 0xe3f8a40dd72dba15U, 0x1a81e856fb1311f4U,
  0xf7e5105a2c540c15U, 0x2cef14d2a6e2e7e0U, 0xe6cab44fcbd2d2c1U, 0xf9c94d34ce3c06f7U,
  0xcf0d05d004dd1e05U, 0x100cd9b606c311f2U, 0x1f3f0e713fe0100U, 0x1720d6c230f6fe08U,
  0xf4d0c9a115bcc0f0U, 0x20f2b7d103efb6ccU, 0x29deccba50e9d620U, 0x31d4ae2c05089b07U,
  0x49e5ebd418d4c1c6U, 0x41dcd4dcfcd7f90eU, 0x226570308f72be3U, 0xcaebfff0ef6c372dU,
  0xe9dc0ad91efa2d17U, 0xdc233243afe2be3U, 0xe5ffe91ed26e210eU, 0xf4e6f1d1230edcfaU,
  0xda034c2109e41202U, 0xe6d5ced3e11b19deU, 0xf4ced9db21e8d209U, 0xeaa5e7f2b5d54cccU,
  0xb5c914e6f94c1e28U, 0xd3ff0beaaee51d9eU, 0xcc9f112ed5141b08U, 0xdfc7303add5a1b06U,
  0x14d5db17ecef16a3U, 0x6810614d81212e3U, 0xebbe2223c11f06ecU, 0xcce2daf3a4be17b5U,
  0x3ab79f3dcd1e1327U, 0xf2eaf1f02ef4f7f4U, 0x18bdf4d0f4ffcaU, 0xce5c80ad5302128U,
  0xd9fd2bee0beeccfcU, 0xfce7c2221925f8eaU, 0xfeb5d5fde41fdb21U, 0xffd7ff090aff03ecU,
  0xe32d70efdeb0dfbU, 0xaac321d4fbbdb6dfU, 0xb2e2a5e8f3190709U, 0xe2c60aa2aa9911c6U,
  0xe8dce7d853f01b19U, 0xee25aa21071345b8U, 0xcc0427f743096f00U, 0x4ee2dc97c1c0104U,
  0x3736f002ee1a01eeU, 0x32fbce7f55e77212U, 0xe3fa0de7c0d70dffU, 0x8c82eeeb111cc3f0U,
  0xb8c4e6af15d6edaaU, 0xfe820d0b3e3c3ddU, 0xd6dfacc1b5c3c1cbU, 0xaeaf17f005b02ac8U,
  0xecede6e6081840fbU, 0x825cfc9be0cf8c9U, 0x1f29fdef3af01ca9U, 0xf7124104cea1ad3bU,
  0x6e61821c6d9323aU, 0xcd9418a638dbd232U, 0xbf47fdf8aedab1e3U, 0xe2d81bee05f607e9U,
  0x9fedeeae05111eb0U, 0xf5ecf0e17835c3d4U, 0x3d45c9339ae600fdU, 0x351966d1ad54237U,
  0x13feeb04d7d50811U, 0xc7f9c704c707bd78U, 0xbfa08bb1be6f702U, 0xfe0c4343c8ed46e4U,
  0xf892532ce967077fU, 0xe2b14bfbbb0900dbU, 0xbd285730fb3927e2U, 0x2f522167091d75efU,
  0xd2d8d01930fa13b9U, 0xd0ab8d70ab2d0f8U, 0x204fbbee5bfc8f9U, 0xfa13b991fa06fc00U,
  0x33cccffb0903d3f3U, 0x11d211e8e3f2d103U, 0x1be92602ecdcddedU, 0x15dccb49872d0dddU,
  0xf3054e35fbf7172dU, 0x17154491e2e53ad4U, 0x1ac201f0fa17e4fdU, 0x717d0e7c800c2b8U,
  0xe5d6cbdedbcb28c0U, 0xfcc1bcd93b212f1bU, 0x11e4d5d106d1c5b0U, 0x4fd1eb72ce749b5U,
  0x1220dcd4d6a9821dU, 0xbc1aecbdfbc5d63bU, 0x2021f4c14096d23dU, 0x44e9ee0c42daf803U,
  0xe6e6bf16fcf7f3b8U, 0x1f1ff1d5eb29024eU, 0xcdf1247f5d6f33bU, 0x12bbf5c4fc1fbb19U,
  0xc1f93cd4c92642bbU, 0xc6020331a3d0b8c4U, 0xd3bed2f90ddf1d57U, 0xb7bb11ed022bc1d7U,
  0x10e0da08391bc7e8U, 0x3d064bfffc174664U, 0xf519431b30c719d6U, 0xcaa10fd96df9e226U,
  0x5650eb14d0d4d1bcU, 0x41edb2e0f6dc51f7U, 0xf951300492acafeaU, 0xb4d32d1e35256a3dU,
  0xf1b83cb318fb9c18U, 0xbe73440d83218d4U, 0xd9c93730fd00f309U, 0xd91e402f0f0809f4U,
  0xcbe2bfa17f0bf5d1U, 0x414cf21ad0033aa9U, 0x3326cdc72edd2fbbU, 0xea1fefdbf0c0e041U,
  0x1000e8e8eef7c037U, 0x3db6220ed4e40ed4U, 0x20e5c6eb130ce701U, 0xebdb14ea18c2c127U,
  0x2cf8f6070dd30201U, 0x23eed2adcbccbd08U, 0xcbbdfdf3eea0b70eU, 0xf51b028115d40224U,
  0xee28f191fec5f006U, 0xfe01c9d7cfdeec13U, 0xaf8e7d502000c0aU, 0x16122ac21e03a831U,
  0xf2e1fdcd10d2be38U, 0x2adc20fcfc07d710U, 0x110a32d3f8cbcffdU, 0xcce6ebd8e3f2c51dU,
  0xf00f00cee9fa0ef1U, 0xe2fe37e2f2e5360cU, 0xd415f8010dff0b04U, 0xd112f5e201e52bfcU,
  0xe3fe1d23de1be6f6U, 0x2fe2fb0eea26f01eU, 0x7e0e42706fa4ae0U, 0x11b272cfe160af6U,
  0x15031cf60e0d141aU, 0xf70ff52f0126ebfcU, 0xf7f91a48dc402f0aU, 0xe61f1b23e6195715U,
  0xf42519e8e82429e1U, 0xeda37cff2c2bd0fU, 0xcc27f906ea15e539U, 0xdada021e2c06c713U,
  0xbd1575ea03212907U, 0xf541f5e0cf48343fU, 0xeedaffc81714e4f5U, 0x120d06422c257f09U,
  0xa150cfcec282dccU, 0x1cfafa05060308f6U, 0xefdc2a1bbbf336f2U, 0xb60d2cc070e1c24U,
  0xf7d615dde81006b7U, 0x1a27dffdf83448d6U, 0x35201e180bfa24ddU, 0x1725bfbff2f807afU,
  0x15e2cfd1e603ce1eU, 0xdce50e1e17a2fafcU, 0x9310116daebf004U, 0xecfff327f8ea2af1U,
  0x382103030efa1416U, 0x8fefb04c6e600ffU, 0xfce3d9f0e213e619U, 0x1714fc29e5e009d6U,
  0xf41af7fad0f309cfU, 0x924b9cafdee8801U, 0xcb109b515d49e18U, 0xf9f5fdbbfe0ffdeeU,
  0xdeb4f2f9d433240dU, 0x44de4131ee22cbaU, 0xf112ed27ef4c40fdU, 0x13194fc9ecf0faeaU,
  0xe8cb1a1e1dd2e52cU, 0xde22ebbc2718223bU, 0x10306325ebf84fe7U, 0x2415cef40b08fe1bU,
  0xf1e4f7d4e813fb0fU, 0x702f7b61522dbdaU, 0x127021428f2d71cU, 0xd00e25de31eb12f6U,
  0x173d7fd2daf62119U, 0xf4010be4f01afb1dU, 0xe9dec9d91cf8160cU, 0xf0fbf60400f028e2U,
  0xfb222718e2f3ffe3U, 0x111ee210e2ec16f5U, 0xea30090bb7e914U, 0xceda26ca10e7f31dU,
  0xf5062c1215cdcbf3U, 0xe0e1ec091d081d06U, 0xf82ce6f7cf0616f8U, 0x2105f1f1f8cafbdeU,
  0x24d5bef41aef0610U, 0x18e2f1d9f9fe03f4U, 0xfeff27f820192bd5U, 0xe8f5d6c51adcdd44U,
  0x211ceffc26afcbe2U, 0x1a37fa04200614f1U, 0x15b0c7f206f2f016U, 0xef25a74920eeedadU,
  0x3fcbef21e602b47U, 0x49f8d7e5ff3ae53aU, 0xd68fe8611bfd3dabU, 0xdc38b4bd3b521847U,
  0x37b80de70acdc7daU, 0xd7e4b4acfb87da40U, 0xe50e4002f3fafbf3U, 0xdb82aaf07b4e326U,
  0xfda7ecb2eae8cacfU, 0xf735f9eef3cedc06U, 0xfff4dfb43afbf61fU, 0xe714ffc1141cc7e6U,
  0xf9ceb8ff141f150eU, 0xe9096cb3f4acccf5U, 0xe912a48d1607bc32U, 0x4aff8140a941340U,
  0xbf377d32f2ee49edU, 0x250110c7a24ce121U, 0x29cfcecf34b7e21cU, 0xddc9f41d13e805f0U,
  0x24fc6544f37f2f0bU, 0x300def13fd4bee1U, 0x2dccc309e8f6d208U, 0xfd30a092bc8f4feU,
  0xfd2b0300db1c93c3U, 0xf0e0e51d81d9c20eU, 0xddb42aca10e2f115U, 0xe2e01be7f909f0f0U,
  0x32c0519cde5ef0cU, 0xc20f08e8f5161956U, 0xc1ce30e9f200abccU, 0x23c4e0ef45efe2edU,
  0x3cfaccf0ebd3f3c5U, 0x411ab7eaf5e8dffeU, 0x260cf303d507e81aU, 0xc8b409fff4fbd13fU,
  0xaea21c3f327f0cfU, 0xff2a2030c2eddb0dU, 0xefd6d3fef4ef2751U, 0xcfef28d8df11b3f0U,
  0xadaf0be2bee00fcU, 0xbfce3e0e8d3e5d5U, 0x15fdb4ee27f1e4e8U, 0x1adacd121413d6ffU,
  0x3510f4e8011dbef5U, 0x391013dae7e3fff6U, 0xf414fd18e60f0e0cU, 0xd82bea2cf6ec0c13U,
  0xce042115e72ac41eU, 0x4f8c1d304edbdeeU, 0xdbb285a3efe9fecaU, 0x3a17fdb4e8ddfe68U,
  0xe0d21af60cf10220U, 0xc4e8b7fbd6cec5b2U, 0xa0a17011219e6f2U, 0x25310aedfbd7dc1dU,
  0x24eb0dc1f5dfe60dU, 0x303e1b310051cf2U, 0xcde9f93a37ea1728U, 0xbbc6274cf37f1638U,
  0xe5d6f0e24ce0fa0eU, 0xdeee60be460f03bdU, 0x1a06bedce310fdedU, 0xd303b2d3e1f6d50eU,
  0xf8b7c6b01e0dd017U, 0xfd1f09c41d0317f7U, 0x3bf70419c142e3eeU, 0x2e95b76bd124d634U,
  0x15d730280c290d18U, 0xe306224aa3104adaU, 0x2ef9fb24a30e2305U, 0xdae53e43323c3442U,
  0xe3ddfc13e5fb1ea7U, 0xcd27f21b46ccf4feU, 0xecf22b4a1f003624U, 0x19dbe129fb310f05U,
  0x15d3f5ed4815f4eaU, 0x45230def03dd12e0U, 0x2e30f5f44b2df24eU, 0x123a10e80908ff33U,
  0x21edf7d80bc81034U, 0x1ce907fdf1223836U, 0xe515142e96fce5e0U, 0xd3f1f11a0adf0222U,
  0xefe420e3a80c1dc0U, 0xce41f2b00cfac4e8U, 0x2cf0cff5e4f2be1dU, 0xbfe2ef124fdfcd5U,
  0xfbfe0afd4aeadcffU, 0x2ee6ddc2fee1bcd1U, 0xae9cb2917f97ff0U, 0x1cb907021b14bf2bU,
  0xf3e0bdfa20deccd4U, 0xf3d8eff5ef11ff0bU, 0xf727f50fb7daddf4U, 0xe1dc16001e1be53dU,
  0xd4fd47f7201062caU, 0xddeadfbdf7dcde03U, 0xebeaec0ae1c7cee8U, 0xe603f9fd2e1a5c01U,
  0xefe1fbb0462c1921U, 0x1a04f501eff4fec8U, 0x328e12b071831f0U, 0xc4f1e3e0f3e7e4c3U,
  0xfe0de5bcccfcc50aU, 0x207f09bfcec9aefU, 0xf0f12cdfd1d2d8d0U, 0xdcd704ee0125db18U,
  0x6eceaed0ace05e1U, 0xa81434fae93e43bfU, 0xd1d0513c0200fffU, 0xe7fa20e2f21128bfU,
  0xc10ff2fe02caf0eeU, 0x1105ecd5e110e50cU, 0x2ad2fb8106c395c7U, 0xbc1e071bcdec0dbdU,
  0xf618f8c3c5f6eb23U, 0xf2d01ff816efd1dcU, 0xc1173ffb07e903b5U, 0x17290ae1c806fe04U,
  0x100a19ff2ceaff01U, 0xfee8f9f70fe403f7U, 0xd92bf0ecfa31ecfeU, 0x7fa32c9f8e5dff9U,
  0xd110121bed0835e3U, 0xd162808cd44f72cU, 0x26050b062308d9e0U, 0xd4493a1c0222fefdU,
  0x437163409294554U, 0xd3114fdd32e2fb25U, 0xffd8eae503f9d2edU, 0x1cf2331414ff001eU,
  0xe8fa3f1525f3fe2fU, 0x14174de6db0814f7U, 0x16eaccc306131418U, 0x25e314a72ff1d81fU,
  0x71fe911070015e5U, 0x41e38ff25e324e6U, 0xee26ead2cff408caU, 0xd7075cd3fdd1fe14U,
  0xea3602d3f319cb26U, 0x7f93cd808d1110eU, 0xf9e4120d29fc11e3U, 0x82dc2e3d4e8ecfaU,
  0x2f04aad7c7e001d8U, 0x2ce5fafa0a38071fU, 0x13101e2bfec5f2dbU, 0xf17e7f0c120e8efU,
  0xdd03fb1b0e112dcaU, 0x3f8c5f0c62fd629U, 0x1df2ebe206c910dbU, 0xebbcb91427202004U,
  0x2111e024c3f618a7U, 0xf9f49cd9f7ffcee7U, 0x1db981eaf41bd739U, 0xf7020c1612bdfec3U,
  0xfa32e6fd0536ed18U, 0x140019061d25ee3cU, 0x7f5063b08b50aU, 0x3825bf24440cca26U,
  0x18f1cf240505c519U, 0x21e2de150b2ef5d6U, 0x152ec60c4612f11bU, 0x2df9f2024c10e6f4U,
  0xfcaae1431ce7d6e1U, 0x2d16b8fb170fe702U, 0xf8e80ec2f5a9e4f7U, 0xcb0bb4cfbf2bcffeU,
  0x13d2cfcbf7bec60cU, 0xff00feb808aabfe3U, 0x26dbbbb5d73781d2U, 0x12f5cece35b3f726U,
  0xeaffeedf0b00fb21U, 0x2bdddac7f9de01d5U, 0x23d6c5f41ae1e4feU, 0xc0ec08da06dfeac8U,
  0xe7f2cbd0c1f5a7faU, 0xf5c101fd21cae711U, 0x2b712071bc8e3e2U, 0xf6e6a4b7effec2d1U,
  0xeee5feeaf0ea1ef2U, 0xf2f7fbc721080b01U, 0x51ee2dcc7f81ef5U, 0x2408fd041cbd0ff4U,
  0xe8e015e50406eceaU, 0xe9f0b5f60decd8d5U, 0xf218b0cada2234daU, 0xf3aa25ffd4100d2aU,
  0x2403022df45c11b4U, 0xeb128af5e1f52b01U, 0xf8cff207db0c442fU, 0x2a42a2bfa3b1ffaU,
  0xf5f5f710c31307dbU, 0x1cc9e509032809fbU, 0xd5ffe2f4daf3e5deU, 0xe327e1ab091deaf6U,
  0x11cad2c342dfaa07U, 0x1c0ef60b02aaedeeU, 0x2d23fed652ef1026U, 0x1bf13a0a4aecd409U,
  0x19a2e1c618c8ae17U, 0x3e0edd963be8df11U, 0x1af543eff9dbc312U, 0xc7d6c7ec001d04f2U,
  0xdf081ba4360d131cU, 0xea1d48ff14f964f9U, 0xfdc7d904d86ee30bU, 0xd2e9af1ac46010U,
  0xdd03262c182a5808U, 0xc8a73a35d17ffdd9U, 0xe3f0f88fbcc325c2U, 0xe91b14fff7e72edfU,
  0x61feaf02216f1c7U, 0xaf12d825cd3447cbU, 0xc00b28d10106b3e9U, 0xb8d3fddc07f9f4dfU,
  0xd3e4fe151cd45ecdU, 0xd524430e392cfea9U, 0x1136a52bbd371726U, 0x1316d43df4ff64c8U,
  0xe60027c3df21d803U, 0xe5cfef2ae1d41d0cU, 0xc60ee4eae8eefbe7U, 0xd3e711becaddebd0U,
  0xc4c7dd0dfde30735U, 0xa7f7fedbe6cc4bdeU, 0xdffa0bcef925f906U, 0x2f51f3fb08f50206U,
  0x3f2cc846302f7f19U, 0x21cebdccb0e0de4U, 0xf2a100382cf53a09U, 0xb3f1e0e325e83edeU,
  0xe22a12e7e0f10fc0U, 0x716e0cf22101502U, 0xfd12be0014d974cfU, 0xe930fdd50a01d9c7U,
  0xf5c3f3fd060a2a3aU, 0xb60b21de131c69ceU, 0xb6fffffe30U, 0xfffffa97fffffd88U,
  0xfffffdedfffffb23U, 0x222fffffde4U, 0x159ffffff94U, 0xfffff8b4fffff92fU,
  0xfffffd1200000041U, 0xfffffdd5ffffff27U, 0x247U, 0xfffffdac0000001eU,
  0xfffffbfe0000029fU, 0x2d1fffffda2U, 0xffffffc4fffffe75U, 0x15900000111U,
  0x1bdffffff35U, 0x395fffffed4U, 0xfcd915c1eee3ef07U, 0x31af6f60f18ea04U,
  0x701242cd6f913f6U, 0xefc234519f3d129U, 0xe70b0f0d12cc04fdU, 0x1015ade8fb1b05efU,
  0x3d7020cb63afd36U, 0xcde605eff6ff230fU, 0x2554f1002000d20eU, 0xda0b0f0f04d12501U,
  0xe406e91c03f30ceeU, 0xfbfdfdd521302f08U, 0xeafaecf2f1d3d9afU, 0x5fed7deb9ec2204U,
  0xc799dcebcdf2e801U, 0xebdbd8df12280c0aU, 0x5e0a11aaf3d930fcU, 0xd9ece1c6faf9e0ccU,
  0xe01d2af8e4080ddfU, 0xad12e80cdaf62005U, 0x17f0eefd161b14f7U, 0xfcef21fb010824f0U,
  0x102053fe0dd918f7U, 0xceff07fc4ed19faU, 0x5df0b0700feff04U, 0x1d4212ac3ae7bb11U,
  0xf345310bf501e1f6U, 0x1429f1240d49f5e5U, 0xf7b30106ccfd32d4U, 0x10e8e1db07ef0cf2U,
  0xa80bccb71f00cee8U, 0xd9fa0d261ef3f031U, 0xcc06e00029f6c73dU, 0x2d2404fdf81ef9e1U,
  0x9fc2541f7f8fde6U, 0xfef03f532ee0012U, 0x331fe7bdf3d3e912U, 0xbf6edcbedee10ceU,
  0xdbece845230b3fc7U, 0x280ff405f5f6f352U, 0x33263a52fafdf739U, 0xeedb0a500ee306e8U,
  0x81514ef06ddc0f8U, 0xe1f7fe4bfc14221cU, 0xedf301ff172b0040U, 0xfffd1e360fed1f0aU,
  0xb5edefe232e3cffdU, 0xefdbd7da45df110cU, 0xf80c03e106124400U, 0x17fa0a1f00dc0ee6U,
  0xf62814e9fe1a1211U, 0xffefed3120b929f9U, 0xebf8ef260d221ff8U, 0xfd2a09ea0406f7f3U,
  0x7060401daf50918U, 0x1ad90417e2e00bd6U, 0x21162020ddfdfeedU, 0xf6b817cb28f717f8U,
  0x312214ec0430f6ceU, 0xecf4462ee31d17afU, 0xd61a04270ed0110eU, 0xfd9eed203faed03U,
  0x52f8d5c71bdfe3e0U, 0x15050d27164ae917U, 0x3818fdc81f060affU, 0x270c08d62059f11cU,
  0x2428f62fd4dbda11U, 0xfe3341f721de05bbU, 0x30f9ff24f5f716f6U, 0x290a0406f720f9dfU,
  0x3be4061916132812U, 0xfc0322d802e143f4U, 0x40120440b3358c4U, 0x14151e2efdff1dd9U,
  0xe1c01112a16bef8U, 0xd30f0237ea1711efU, 0x29a02f05071b432cU, 0x1f9020707c002e0U,
  0xd62815d10527adf6U, 0xe1c1a22315d800d8U, 0x11ebe6060a260f04U, 0x25f302d415ffe1f9U,
  0xd0301bfff829001cU, 0xe9dcc409fde7e5ebU, 0x3deb1012f02f0603U, 0x313d995fd1e06f1U,
  0x15020c2dfdf32a10U, 0x2503eff3ef0aeaf8U, 0xf23d00d51000f03cU, 0xddd445b0fb14d904U,
  0x190929e1d2061bd4U, 0x202d240729ecf8c6U, 0x162c32f3dbe1131aU, 0xfc1431fd03f1dbfbU,
  0x4b01cb2406de06f8U, 0x8415007615bf1fcU, 0x93fe5d1d910e4U, 0x20c0ed02fb13a2eaU,
  0x3730e5fdc70f07e8U, 0xcf1d0bf71f14b6eaU, 0xfeecff5b05f0e20fU, 0x8d73aeb13020a27U,
  0xc09f5112b30e724U, 0xbc19fa1c472df9faU, 0x9d42136f41738f0U, 0x3efd2d110e0b1233U,
  0x1e210f0d04f809e7U, 0x40c802303b30f8c2U, 0xcf9d1a06c72e17e5U, 0x1322172b5616ca2aU,
  0xd81d28cb116222efU, 0xf4f91213381ee5ceU, 0x1d37fe2eeafe5647U, 0x2b4afbfa4728ff10U,
  0xe8401a23d32206f0U, 0xee1c6bdd21303feU, 0x4ef6041af93df8f7U, 0x400bf6f605113d21U,
  0x2f021a4ffdfd52e8U, 0xfce6e63cbb710b14U, 0x10608e90301c01dU, 0xef0a011938280545U,
  0x2341fa1fefcd1123U, 0xfd0d36d5f2f921edU, 0x1ce406e314d81dd3U, 0x2816f1093730da05U,
  0xa280a0cee105a43U, 0x231c373e571b04f2U, 0xc43d20d5c8d8efc5U, 0x59b3f7f1c2fcc7ecU,
  0x50bdd4d52d0f3921U, 0xa4523f231efede2U, 0x2de8f50b03e1ff34U, 0x22c3f0ebdbeaeb08U,
  0xdaefbfed38130707U, 0xe003f70f584fc7cbU, 0x281a241af908ed48U, 0xdc2ab8e0370952d5U,
  0xe60aef00ead904e3U, 0x7be01e1b1f3fbedU, 0xd6fd19a9c7e5e6d9U, 0x8d19f11bf9d443eeU,
  0x26f5da002acb26e4U, 0x318173630ff31eaU, 0xee150c2cd4e346ebU, 0xfbacd206b8e5e02bU,
  0xd1d4e4351b2fd800U, 0x8bbcfead6070b44U, 0x3149fb205308c60dU, 0xf6651b451a3e3663U,
  0x391beff31e19131dU, 0x1810d3f9f6303154U, 0x46f238d90b26fc71U, 0xfc19f10108454860U,
  0xe5351e2febf00e07U, 0x3d50f7d41d3024edU, 0xfefb0fbfd1cb12f1U, 0xe7e60925edcadaceU,
  0x1bc23c05f3d8f6c1U, 0xdd4d0836f1fcdbacU, 0xa48cbdc58aff136U, 0xfd36eaf1fafce91cU,
  0x1efe9f30af20b0fU, 0xf0f3200202e439d8U, 0x391c0f080afdf120U, 0x47ef2cfe2d1dcec3U,
  0xfb460d53d704d847U, 0xeefad105e5ea22e8U, 0xdfcd4608ef2306e8U, 0xf9e70a290d1d41f3U,
  0xc91ae2facbf31218U, 0x31e2051f98ff11aaU, 0xb6d22825fce4bed2U, 0x38472dd1043addf7U,
  0x14b11ed7f30e2af7U, 0x124b132cae2ad0d9U, 0xde07e34406c012fcU, 0x6d0a32efbddeceebU,
  0x1000ebe7024ff20bU, 0xbf17e9c417e3ed05U, 0x225233f71b0c13f5U, 0x3b3c24fc133633efU,
  0x1901f4e532ef350eU, 0x19d9fae9bb032b0dU, 0x18f031d7471de822U, 0x16e71300f64d4103U,
  0xc6fefd32f2150535U, 0xf0d238e71a0b1ad9U, 0xfd030fae26e5f4d5U, 0xbf0bdc1e9fff7ecU,
  0xf9edb11ad3effef8U, 0xf91f0ee81af646cfU, 0x23e612d4fa0329c8U, 0x9cc0fdfec0bf0faU,
  0xfde41908d1061e14U, 0x121022dcc1090bdfU, 0xfcc927e6b4f9c82eU, 0xe9e2ccf9fff6eaf2U,
  0xec0edd0e31f8e1f1U, 0xdeef1ff0ede5e3f4U, 0x32e224d4e4c0d1eaU, 0xadc7ef52e3db25b2U,
  0xf2bcb31d6f1d8efU, 0xb05e80ffbb5efc1U, 0xace3e1ccf6b2b8a5U, 0xebea29b8172b0aceU,
  0x99a26dbcc9ef505U, 0x331f23f3fefb0badU, 0xd4e0c29bf9c5dae6U, 0xa5eed205fb10a7c2U,
  0x34d4281e3c054fdaU, 0x192a36efe4eee8d8U, 0xd9d2fe05dfecd38dU, 0x1804d817c315dd00U,
  0xd1f00ec3e404022aU, 0x30df16cbccd2eeeaU, 0xceee032e2217c1e2U, 0x420946af0e08f202U,
  0xbf03fdeae526d60aU, 0xf3f1f0e327a106e9U, 0x441308c70dd9d61aU, 0xeffc216fcf7de2eU,
  0x132f0801e4ead628U, 0x5fb01076af8fef3U, 0x4612f5e2e3c805f0U, 0xe0e00cf5c1dc09c0U,
  0xf1e8e6f708d613e0U, 0xdfd605eb07ffda03U, 0x2f143d9fbf10c38U, 0x1a05c456decf29ddU,
  0x20dc055d7f7d5faU, 0x9e8fc0ef905faffU, 0x4e8dbf11dd0d6f8U, 0xf827e0e5e80ae3d5U,
  0x64c1a15bd09ed0fU, 0xb02e44c2cb6e79cU, 0xcdddd1cbf89bd8edU, 0x1c12c2e3ede907ecU,
  0xdcd1ec04bfbc22e7U, 0xf5dedde7ecd21bc7U, 0xeae505f81fbcbef7U, 0xed070018f404221dU,
  0x8fa1be7a2d96ec0U, 0xf8e10ac819bbdcd9U, 0x24bee0a435efbbfcU, 0xfc59ccdc08f5ed18U,
  0xe9ed60fbc0cd02e8U, 0x1afcecd232aa51c6U, 0xef505f6f3d8e702U, 0x221ffecfc3e3c418U,
  0xfa0419eb0a1aecebU, 0xf6e4300b081138deU, 0x728e8f303f202e1U, 0x221070aecfaeef2U,
  0x154a21e1f327e2e7U, 0x1508fc1222d72508U, 0x4be441eff300191cU, 0x5e30904e30c66fdU,
  0xd509ee14e2060af2U, 0x1ae2f505dd00e806U, 0x42f7141304f9131bU, 0xf206ed02ebf916f8U,
  0xdf222708d10bc608U, 0x9f6e93915ff0c08U, 0x301cecfc09e30e18U, 0x3fefa11f905e8e6U,
  0xd321605eded1c1dU, 0x27000a550508fdeaU, 0xf340dfa02e1f305U, 0x1018050af9fce50eU,
  0x1e1e0a20eced280eU, 0xeef5163106200effU, 0x84cf11712eeeef9U, 0x1f70e00e000dd05U,
  0xe40301fb10d9d62dU, 0xf3ecfc06f25f03e1U, 0xfaf80322fcf919e8U, 0xf5f22abc1805a2feU,
  0x36dde82b16031704U, 0x6181c2dec15f9f1U, 0x1c2e061ffc03060bU, 0x5061cfcfe0efefdU,
  0x808f81404f41c03U, 0xf90f0115e1391f22U, 0x9f30002ea22192bU, 0xebf71d1206fecaf9U,
  0xd3e720f527de28ecU, 0x27e7d357e8fe0313U, 0x14c72ff10d09f80bU, 0xfedf0d20ffdd7fefU,
  0xff260a3001f40502U, 0x23efff061a041c24U, 0x1e0b27f90af51c1dU, 0xfa081f161bf83102U,
  0xf8131808c5e53e0dU, 0x400ec1ff0ed1bfcU, 0xfc050ef7e00420f1U, 0xfdf6ea0ae6e01218U,
  0x14f302faef0d22ebU, 0x1defe3fedd07ccd9U, 0xeb00fa10071e01f2U, 0xfae9190eeb09cd01U,
  0xecf709d52f03371fU, 0x8f1ec1ddee3f1e8U, 0x20604ef0c02fadcU, 0x1410f10dfc1a3c11U,
  0xfafeff1ae11a1c21U, 0xfb00e41ddbf207e7U, 0xd8ffe4f7e052f2b9U, 0xfb13fbd4d30cc72cU,
  0x7fff72023181af1U, 0x2b10f411ed02eb02U, 0xfa06e82bed10fbe7U, 0x1811feee081104f0U,
  0xfcdb1f0f0f2e3afcU, 0x1ceee13de1f90920U, 0xd5d811063825f52aU, 0xd40012e414010af7U,
  0xc4d745230d0c1bf6U, 0xd903a9670ae01513U, 0xa02e419ec10fe16U, 0x11f3ffef21f50405U,
  0xddff19f1e0230e08U, 0x2ddbfefc0ce5e10dU, 0xeefbd811fef5fe2bU, 0x13ec07f2fce9f61aU,
  0xedecd11500f912fbU, 0xf40000e417dd1618U, 0xd823eb102507bddaU, 0xfc120b17180cec2eU,
  0xcf170c08ffe7f5f9U, 0x5721fb02f7ed39dcU, 0x23d10e350403f3U, 0x2f50fad00438e232U,
  0xd204170141172333U, 0x161bd60b3ee427e1U, 0xfff60c1b1807ed34U, 0x32f3ee182aa80aU,
  0xa30d36e81a242105U, 0xc01b3f810c11d05U, 0xeeedf0d01920ecd4U, 0xfd16cedc220ddcfcU,
  0xdf23f0eff7f41cfcU, 0x2d06e7ec1bef1cf1U, 0xdecdd9cdfb10effdU, 0x222fef61302b6fbU,
  0xc8de2e20e11235d4U, 0x160ad5e31de30910U, 0xe5f1112315190718U, 0xe70efefa18bceee2U,
  0xc1ec3ee1101cf1e3U, 0xc4da3bfcef0216U, 0x5071525f22ef8dfU, 0xefdf4fce30803f4U,
  0x21207fdf2180101U, 0x350a090efdffd9dfU, 0xe212cd35071efaf8U, 0x3df014170dffc827U,
  0xfd0ae9f309171d08U, 0x3a1fcbf9eed0f1faU, 0xe0f2dd02180df0f6U, 0x242ee1fe1033c505U,
  0x50d03e0d1d7dfe7U, 0xf9f712f309da2000U, 0xdce7f423f30914fcU, 0x3324d5b5151cf6ecU,
  0xf20108c1ee3104caU, 0xecee0b21e9cedce3U, 0xfde9f2b0130034f1U, 0xe2112e613f3e6ccU,
  0xee00fcb1dae514e5U, 0xf7ddeac42ff5d5f6U, 0xf5eeeff6e8fc00d2U, 0x102e04a2406f311U,
  0xf417f5deed3552dfU, 0x2a24daeefefeeafbU, 0xcae4e60d1a06e616U, 0xa24e7f31050a620U,
  0xdf0618fdf7123010U, 0xa0ed5223aeff3e9U, 0xedc8272bfb11ed12U, 0xee02e4f705d4d803U,
  0xc1d1361319eff1f2U, 0xcbc8e91d09de1e15U, 0xf0ff1c0711f8fcf0U, 0xe001e4bafc26ae09U,
  0xeaf000e7eb1af3f8U, 0x2517f404fbe4ccd6U, 0x1a20f0e6eb160ae9U, 0x34ec01ecef07f7eeU,
  0x3b17fd0f08340152U, 0x5019e5fee7e70312U, 0xf7f2f8240be8d004U, 0x3331f6f01a41002eU,
  0x26d9e4d0f50f120cU, 0xf270dd52ee3fae8U, 0xfd0afbe1bde3f9f8U, 0xf0e20a19f9cd3afeU,
  0xfef2a2d708fbe9a5U, 0x9422ad4da2fd2ebU, 0xe108e817a5f52ebaU, 0xd9e401d9009ef303U,
  0x1af09dd1df072096U, 0x81f42c4291bbaf4U, 0xfc05efefc3dcf8c0U, 0x2a10e3fe09e0cb37U,
  0x58d6e6bfba361308U, 0xe91740c90819c5d5U, 0xcf06060110df1c1dU, 0x51261a0b0f1ad201U,
  0x6ff21f8f3180c1fU, 0x1e3f1000f0fa1af8U, 0xfd1f13130b18fefeU, 0xe523054321f7d3e4U,
  0x3809082f0c29f2ccU, 0xf1eafbf002102106U, 0x6e42b38fa24f552U, 0xbe8fd03fb10b818U,
  0xfff205151b1512efU, 0xe5d6fd0d02fcee0dU, 0xbeb1eddc3f307efU, 0xa18fb001606dcf4U,
  0x32ef2034f90717ecU, 0x2f2114f7fbf3fafaU, 0x28f016f0e9e6f8f6U, 0x90f102918173c20U,
  0x2f2cea20fcf128dbU, 0xf9411e0a1ff8b9efU, 0x110a020fe9c901e2U, 0x100dfce31c0edb12U,
  0x12ddbc01faa107d7U, 0x214014fbdf26f2edU, 0x11f9f3ebfcd11153U, 0x16ebebb70ffd0ff0U,
  0xf4f3d9e2040530ddU, 0x210e5506f234f71fU, 0x73701da169e070cU, 0xe2f0040bd9d714e7U,
  0x17def8dbbee7fbddU, 0xf31224e822fff9ecU, 0xfc0901eff8e01bfdU, 0xaf30e22f60a04fcU,
  0xedfcfa1bbf0c1e0cU, 0x29120608ee251205U, 0xc141a071b11f806U, 0x1501062eff21f50dU,
  0xd25e82d281f1415U, 0xf3fe11f9310917fcU, 0x28050ced221b1228U, 0xf9071705ff2006d0U,
  0x2b12f54b01f8010cU, 0x18f7010cff1f3504U, 0x250702d6131807f4U, 0xe4f60f100d22e0e5U,
  0x180ef41efae239ffU, 0xe3eef0f50211fcd3U, 0x310913cf09f0f949U, 0xd7000d0c03f907fdU,
  0x1ef60519362939eaU, 0xef240436fc1adeceU, 0xf7102ded0e0c042cU, 0xece21d2902fd1402U,
  0x1b25ff281c0d14e2U, 0x22f327370a2202daU, 0xeb0e01fd03f5e12cU, 0xfe051106f2f6fdf9U,
  0xe5f3dbf1fa07d105U, 0xe100f6360710fcf7U, 0x161a0211dbf8f812U, 0xf4d11711fdddf0f0U,
  0x27ff0cf5e2dce1U, 0xb10416191ffcd10fU, 0xf41306e307ea01ebU, 0xe70c06000d021715U,
  0x4362419fd012807U, 0xdc07371000100ee8U, 0x230c1f171302f317U, 0x24fd04db0f30061eU,
  0x92c10271422250aU, 0xef202111134b1400U, 0x31f6c9f9f3f2e216U, 0x2fdfff606fc09f0U,
  0x13ef1008261bd9f2U, 0xdbe61ae8f80d1902U, 0x44e60ae3cc0d0a4dU, 0x2130528e6f244f1U,
  0x216156705cd13c3U, 0x19dddf040cf80c02U, 0x34f60ef6081de714U, 0xe111ed0fea2cf3d9U,
  0xdc1b2e392621c6f4U, 0xf2f7042de0fe30ecU, 0x140021d10dfd0e29U, 0x12f10036e21406e6U,
  0x1fe2df3dd221007U, 0x19ea1d1508fb20cfU, 0xee041ddbfd00ef2dU, 0xf1f4f2e6e8c71604U,
  0x14d2c916100d4eefU, 0xf7f802eafe2219f9U, 0x429eff108ed06e5U, 0xf10128eb02f012faU,
  0x17e6c0141b0d09d5U, 0x2aebf7dbfb0c3910U, 0x403e90518def3e1U, 0x281af7edecebf9f1U,
  0xa161ff8e50d3ef5U, 0x1b060b04001e2ef7U, 0x10062ef621ea3506U, 0x1520e51dfd1de1fcU,
  0x2a1b2024f4122614U, 0xf3f71ffe171b2d12U, 0xdac9d0cae6d5f3edU, 0xe419d6e7b62006a8U,
  0xe1a0c1f8b516e927U, 0x23b0dfb9afe1371cU, 0xbd0dd6a8f6129948U, 0xc7d63ac8bdd136ceU,
  0xfeb7040e3799ddddU, 0x2b172ccf20cace0fU, 0x45b4c5bc0d12d9f8U, 0xf12634144beca8a2U,
  0xb21fe5ae3f490e1dU, 0x13fee18f3550e1b4U, 0xce0b1d24bc4a152aU, 0xab1ea208da87194aU,
  0xfe607ae2b83efb6U, 0x450ac4d504461199U, 0xdd2dff0ee8e9fa41U, 0xe52eb738b5c45030U,
  0x40253ff429a0acedU, 0xa8423ab6f1b3dc21U, 0xc1e8b3e5d4ea3021U, 0x206001be728240aU,
  0xf326e8d1cf33ca05U, 0x3445ad23a5f10db4U, 0x2a002222391807f8U, 0xcbf418af131624f0U,
  0xdc9be8cfebbd28b2U, 0xf4f79f0fd0512abbU, 0x1dd100399618a4ebU, 0x1da2b06c6a01afbU,
  0xc30df8af24ba0f0aU, 0xee1fdc3f21ac021eU, 0x8a4bc203fc37c3e9U, 0xb0ec26fde408eba2U,
  0xc025eb82b6c6c90eU, 0xe52a10ac3952fc49U, 0xda32b2b8d2c32bb1U, 0xbbbad9a9b3ba2726U,
  0xfaaf243afadeaa09U, 0x1bafe700ab14193cU, 0xd6a84101d09fda2dU, 0xfbca30aa2f4426cbU,
  0x4fb222bf223b12e8U, 0xd3b4bd8e1b2049adU, 0xe8c1a8ab22d444d4U, 0x189cdeadbbe0e4e4U,
  0xfa2ea602e1a03017U, 0xaeb906b7d1cf5422U, 0xe7e99ff6ce17bc52U, 0xcc220029c0c8c1a4U,
  0x260f1a34c038dfe4U, 0xe2e0d9dcd4e3aecbU, 0xfe46ba1cdcd4b42aU, 0xda6ff1bb0c20536U,
  0xca3eea19afa90ad5U, 0x3dbb4302a72e8afdU, 0xc907d50fdbd5c1e7U, 0xadd805dcc5143b3cU,
  0xd105ff2b8f264a54U, 0xb6c7fdde1ca8f3e9U, 0x34ba43e6d8d32519U, 0xa022dcb0dff8baadU,
  0xc0aef9abc835e3c2U, 0xb0011eb93ac2db08U, 0xf4911fdd1af46efU, 0xfeddd80094dfcdc3U,
  0x2fa64197a32ac2e8U, 0x44322ddb9fd9ee42U, 0x1ef039b2a0910e35U, 0xe030e5aaafdd43daU,
  0xaccfb2cc5a7132dU, 0x3fecff35dd490dceU, 0xf6d51efb140ee7d3U, 0xb7e9c2eb06f8eb31U,
  0xc637be00eb43eedaU, 0xbaafe0c8a8deb42fU, 0xfdabf33f9b126c4U, 0xb7c7bbaeade3ab20U,
  0xd246ac49c047c256U, 0xa6211ab5dcec12U, 0x1e1c9f4b4a540bf1U, 0x1aafb007cfd1f932U,
  0xbd2cc7cc16ffe920U, 0xb7c2230dbb002e04U, 0xe4ca19fc282ee73fU, 0xbdce1ca23d0a10afU,
  0xc6f5f38ed01924f8U, 0x20bd7012bcae119U, 0xa9d341e5eba0ee35U, 0xc802d4c7e4d94b37U,
  0x2f291bb1f31b1254U, 0x300f29e5470ba8c0U, 0xdebcc1294422ba94U, 0xe3ccfcc8e2d3bcebU,
  0x39f857e6d70311c4U, 0xca9a2fea00822efU, 0xabed45bf2bbbf926U, 0x19d517f5caa4c7f3U,
  0x171796151e13c7e2U, 0x3fb1e60432ba91f7U, 0xc4ad46cd03e002faU, 0xb3c40cd5dd08abadU,
  0x2f3013ace32c4b35U, 0xbc29f906cafd8ec5U, 0x294b2519ea21c40eU, 0x9dc6e23bc4d0c4abU,
  0x14cac12501014e09U, 0xc79dc110f9fa2b2aU, 0x11040d2df3cefff4U, 0x4bc226eacdf7b830U,
  0x4bd82c8aebc851d8U, 0xbcbaf22a3dc34afdU, 0xedda13433e23ddbdU, 0x3afeb7a217d557a5U,
  0xcfbc07f33b3e1fd3U, 0xb5e81ac1491ac1c5U, 0xfcc22937b5fac9ebU, 0xc7b40bb7f3b1e517U,
  0x25c6bda5d61054b2U, 0xe90a0301c8cd36baU, 0x52f23f7002e1d40U, 0x4131ef0b0544ea1dU,
  0x479d98eaca09c0f8U, 0x40caf42d07fc1ab2U, 0xddd0e1e42cacd7adU, 0x19a006f9b83b2403U,
  0xc8d0f492abc9b302U, 0xfd39cde741e3000dU, 0xf92fe22df4abc3d2U, 0x10e10d2b7349aa6U,
  0xd0c4cebda5a4a725U, 0xf1ea0eff706c7c1U, 0x1008ecd21bf13eU, 0x31071440f7f0bb1fU,
  0xd8adde364ad4fa28U, 0x1bfbed48e6ba360fU, 0x99d9e1284bb41ed1U, 0xf439fdc805b60c22U,
  0x12e4ba02c30abd0fU, 0x29b1221510f6aad4U, 0xe5051e21e603b0ccU, 0xfa03b03db1123c0fU,
  0x3247d544add8f803U, 0xf31f420d39e8f4cbU, 0xf0ecf5c2261db027U, 0x6884121daae073aU,
  0x3208e3fb36cd0cb4U, 0x4bf8fae8123b310bU, 0x1e01faeb09b5011aU, 0xb0913f8c6d6c5fdU,
  0xdda234c1bb05d634U, 0x1fdcf8e1a3171cdfU, 0xcde4bca7f6e0a9b0U, 0x19eb8a47ab0bb23cU,
  0xb6d3aa33f23af1c2U, 0x3b2fe1a9f4af140cU, 0x52affbefca04a2cU, 0x34f0a1bf2b05ffe2U,
  0xf1013107250436c8U, 0x46a6f70c40c1530eU, 0xbf26aaf1d0d6a389U, 0xe709093ece0740faU,
  0xccb339c5363b31afU, 0x1122dfd30d55e5b9U, 0xf1dd44a20fdee63eU, 0xab36e6b3d7cc14baU,
  0x890f94f442de3f40U, 0x13109f9404c256efU, 0xc223a4a4c29fc5ceU, 0xdcdaf447e7453105U,
  0xafac9012dedaf6b2U, 0x71719f9e13d41b0U, 0x520f34b2f1b9e844U, 0x24ab14d5d4aeb7a6U,
  0x900c8073cf826b3U, 0x35cd40fce029efc3U, 0xbeb01b14a620c8c0U, 0x7a643ebb73eb0cdU,
  0xbce34dbcb9a24649U, 0x4b1b4504f6acbda0U, 0x9bd4dcaae938a636U, 0xc3815c63ffa3c46U,
  0x3c3bd706352dae2bU, 0xbad301c9d330cbcbU, 0xd5b729a0b51b2ec0U, 0xf02d90ef2fb04baU,
  0x2ca3edd0e72203e5U, 0xa0b65deaf2d12ac6U, 0x3ab72d25c222a2feU, 0x51ba9e8fd43d8bcU,
  0xd4b42cb34aa8df54U, 0x2ad549322adf98f4U, 0x230b2ec4db18c9aeU, 0xbb37fce999cd17c9U,
  0x9b3e33071ce64016U, 0xba0a10cfe3c9cfa4U, 0xb8e001c0e7c8d900U, 0xf1d5c03fca0320cfU,
  0x1c3eadb0e9f7dd2eU, 0xe82f15eddb21dfc4U, 0xfe40cd2518ca2ab5U, 0x19351bff0df8c10cU,
  0xd42dc9d4321509e8U, 0xfa27dce7bfabba39U, 0x47f7383203f711b2U, 0x3408b6b19e2347cbU,
  0x28e3b6f8cd24f6e1U, 0xe1a8ed3bdebf5644U, 0xf329ee1ae13fa81fU, 0xf21817f33eb536aaU,
  0x57bfe3f8f50bc5feU, 0xf4f3a726d70c0400U, 0xbdbde6f643f42630U, 0x4b2ed9a7e3a31cb3U,
  0x2015d4f328c300faU, 0xaaf9b1233b07ae42U, 0x10a640b7abef35b1U, 0x13f50a372a15c325U,
  0x46a8dcd5181501f4U, 0xc5ccdd4b1af3fbf5U, 0xa1faa212251ee19dU, 0xfbd69b36420e07bcU,
  0x3a2a140ee2cbd4cfU, 0x9a5060aba520446U, 0x9d92bb5b3c234eeU, 0xfa9c0b8e7e706dbU,
  0x4121c4f4cbcea227U, 0x11cbebac21ba2ae0U, 0xe0ecb433a6fb30f8U, 0x29e1edb20cf4ace2U,
  0x202b0517f60db6a7U, 0x1536dbe4fd2a57cfU, 0x91abcd41e221046U, 0xf5de24acfdbbf81aU,
  0xf21aa6ad07ca4edcU, 0x449eb4a6f19ec608U, 0xe1dec193322c35b8U, 0x9d1f9e481b115d5U,
  0xcb2020f9a9f538b3U, 0xfa7b7eba150c60bU, 0x1bd212e1f0b7f716U, 0x2e3aed0c9a20425U,
  0xa901dbe4b2cf4cacU, 0xebbdde9fdc13f9edU, 0xb404a8b92acae600U, 0x22aed106e70b55ebU,
  0xa64ba7012deca954U, 0xd8faba2bfff847bcU, 0x2ace0610e3bb02aaU, 0x2ef148ee2aec3723U,
  0x4c1f19a99c0ff4ffU, 0x458ce0103a3b4220U, 0xe705323138f52fd3U, 0xd063d1ce5d31c17U,
  0xbb25fff8e81cf4b6U, 0xc434d8f336ef182dU, 0x220e1cf300051723U, 0x50cf507200e2b18U,
  0xd30b06ee09252a16U, 0x5903161604f4ee0dU, 0x1b24282efaf12313U, 0x294005ef1719e31bU,
  0xe60f24bd071510f4U, 0x3ffff81e150dfceaU, 0xff92116fc030127U, 0xe9000be812fdea04U,
  0x9e3e701eb0fff09U, 0xe8effef8181afb0fU, 0xb18faf0e9f610ebU, 0xf6f7160debfd2ffbU,
  0x817eb1205ea1b12U, 0xf300f8fffc10ec0fU, 0xda16eadbfee0e392U, 0x423ffd301f7bf10U,
  0xf7df0dea02f2c61dU, 0xda1d32f6f515d9e7U, 0xf7d80a05f90e1b17U, 0x717ead10302e207U,
  0xfa0de523c9e10feaU, 0xff012be207d7da01U, 0x14d50212d4ff0311U, 0x8e8d7ea09e91105U,
  0x223a0a2818f5d0f3U, 0xcfc1008e7cee7e3U, 0xf71df8fd071013f7U, 0xefe5020e1ef0e6ffU,
  0x28df15070e0501fcU, 0x28f718311f2a0efaU, 0xedf818ff07ecfee9U, 0xf70002d80b08eef0U,
  0xefdcf50628f52112U, 0x2b01f60214cb0b18U, 0xe4212517f4e023e2U, 0xf4e7fbe7dff80a02U,
  0xd7d2f0fe1fee310dU, 0x1929eeda1a152fe4U, 0xc9020e12eae92ef3U, 0x12e0fc2baecd0de2U,
  0xc6f2d9e62421d6faU, 0xedf100f55246dc1aU, 0xe9f2f8282c20fe51U, 0xf0eb1efe0713daedU,
  0xcaf312a3f71ff312U, 0xe5c6052e2df0e73eU, 0xf3f5f2e0fa21090aU, 0xf2f10ddbd3db4404U,
  0xcefddff1fbf1cdf7U, 0xe6fdd7ff06d7e9f6U, 0xe6def6cbe61405d9U, 0x3e70601f715fa04U,
  0xc909f6cbfef32a1dU, 0x5405f40325dadceeU, 0xbefe606e6fe0016U, 0x500dfdf180cf7faU,
  0xf21a31f9fe0e2d16U, 0xfb1703e42bc1c5f5U, 0xf2e7e81a1c0ae10bU, 0xe0838ff01f8fc22U,
  0x17f9eded1aff050bU, 0x1d1fe0dbf40601e6U, 0xf8e4e50ed606f321U, 0xfcfe10f811f40ae4U,
  0xcd18dfff48f9dcffU, 0x1001e1c9f6ddca0dU, 0xfb030915eacef4ceU, 0xe5e3fe11f0ec05feU,
  0x1410c403fa02041eU, 0xf713e3d4072c0bfbU, 0xdde5edf112fad61dU, 0x1006edfec2131914U,
  0xe711edf7f6ecf7e3U, 0xe208dee5dd2afff7U, 0xf60ed60b22240916U, 0x1e181c66ecdd2b09U,
  0x27063708ea1bddU, 0x2419ff7f0d344d3dU, 0x2602f0fbf1fdcf31U, 0x154fea2f053d1129U,
  0xe714344417f0f60eU, 0x1f0ce291d142041U, 0xdbd1d6df03f6f40eU, 0xce20e126e6ff1ff6U,
  0xcfcd0901fce7edffU, 0x4a07c2be21affa15U, 0xdcd4ed0ced03dee4U, 0x8fad6030804fd05U,
  0xf323f6dffcf0e219U, 0xf8dcd1e70b1dd5f8U, 0xfb1a090412f8e3efU, 0xe0e17fc0b05b7faU,
  0x1ff7f2ef2605d8feU, 0x14fff6effc060515U, 0x15e8150af5120a09U, 0xf5eb03c9102b1cf9U,
  0xf91002132302f60cU, 0x9e90901fa21bf14U, 0xadaf5053aece70eU, 0x80ef30d2a300226U,
  0x2ce53440e3160c47U, 0x22fad6fae6020aeaU, 0x14d107ff1806c4ebU, 0x2741f22e1b3f3527U,
  0x20530612dff72832U, 0x2338ec22e10a1dfaU, 0xd0ddf81222f4f7e0U, 0x624109e4174be32bU,
  0xeb081cb2022df11aU, 0x1061523f71f011fU, 0x5441aec26e208b1U, 0x255f3c092d0ad039U,
  0x552a1515d2142f0aU, 0xe430ade2633f321U, 0xed2a074031e229beU, 0x3e14f3f2f805d667U,
  0x7dbf0fd081d1739U, 0x6eafbeb2ceb1a45U, 0xf218e72d020bc310U, 0x13f11711c8f12d18U,
  0xc60ae00838103005U, 0x90bedc6144c1c17U, 0xe5f426fae419050dU, 0xe0050808f4f145f3U,
  0xf9f901170af946f2U, 0xf12c15c84fd80725U, 0xe50d2a21f71de3e1U, 0x29ec02d70d03d70bU,
  0x190f0a21d20026e6U, 0x1018edcdba21dad9U, 0xfdf90ee0efe10630U, 0xde1ffe03f213c6fbU,
  0xf938fc27f6380eeaU, 0x190214f0bee806e5U, 0x31d9f6dfd4d30d20U, 0x4ddf1280108dfdbU,
  0xf33a090cf4eb4403U, 0x354fe6250affe4d7U, 0xd44e80e0404d1c8U, 0xe6fbe10405e543edU,
  0xfaf8bc1df1c4f1a1U, 0xfe23e9e610d50813U, 0xe0d00f3f6f529cbU, 0xf7e11311fcdfd0feU,
  0x26c6dcd8f72052caU, 0xf1e21ef42f0efddU, 0xf4271014f912f41eU, 0x1be41ee213c1b9a6U,
  0xe9c4f9e3fd1846c0U, 0x160c100621e3e631U, 0x104febff1936dfd9U, 0x4cf39ede50dfe11U,
  0x14fde1c4433df41aU, 0xf8f203e3c4f31304U, 0xfdfb21012212ea21U, 0x3619dcb82817fa2dU,
  0xfc1d241a1413f506U, 0xfbfbfb93f5e22519U, 0x7f91715fb080800U, 0x2cb021903fc0df4U,
  0xf4e4220e230815U, 0x23343be016f20ffcU, 0x1cf0edc51700d6c4U, 0xd7e5d0e3f72616e0U,
  0x2efcd803f0db1ad3U, 0x2af71f270c06f5c1U, 0xf9d5f1da03ef1efeU, 0xfbe4e70ee2defbc7U,
  0xa3855d1fafb24f5U, 0xf4eefc104604d5f8U, 0xe2f31ffc0c05f2e9U, 0x1bfee4281a2fec04U,
  0xfad51ff5123c122cU, 0xfc09fb0b32d2eb01U, 0xed1113fcf5182a28U, 0xf108222a14eddfe5U,
  0xe002091af4fa1aebU, 0xe1fb0c0e4bd70ef3U, 0xec00151ae410f70fU, 0xded9200f07e4f7e4U,
  0x1228f1e6ee1a1a0aU, 0xa303a231af1d91dU, 0xc08022f15f106deU, 0xc2cfce40ce6cd06U,
  0x321cedd2e702d3f2U, 0xd0ff3b10c003230aU, 0xe020221f0811020aU, 0x38092fdaf8e2d024U,
  0xc05dae5261ae516U, 0xb9434ef7d2dd0814U, 0x28e611fc092aff27U, 0x140cf3e808121cf5U,
  0x3817ee48fdfd2a14U, 0xf6092e00152f09efU, 0x1ee000d01ee12d7U, 0x2706061a2efece02U,
  0x261e0230c4024de4U, 0xee0226291ace17d8U, 0xf0f609cb0a0afa0bU, 0xef33e1031cf5b7faU,
  0x7df2906effd1c14U, 0x14f60427fb081b0cU, 0xd5e527ecfc02dbefU, 0xdbeee30ee9e7efe6U,
  0xfcbf3ede215070fU, 0xfed0fee113ec18f0U, 0xe12414fb1aecf6e6U, 0x18c7ff08d101f5ffU,
  0xfcebeafbd9fb3e19U, 0x27fe1df33df300edU, 0xe03b05d310e704deU, 0x1a1821d90822f70aU,
  0x2118040006fc4d1eU, 0xe193609e33a4115U, 0xd64a13f91ff102e8U, 0x1f3910d7f101b901U,
  0x1a0304fbfc1b1f13U, 0xdc0719fae02525ffU, 0x414f9ff281b11ecU, 0x80a0e0802f9fb18U,
  0x1ce80c0b060de40bU, 0xbc1b0c06f41913fbU, 0x7fa02dce90befe5U, 0xfaf4d617f6fa42e7U,
  0x51bea1d0ee425efU, 0x3ffd1a03d0f215d7U, 0xd0fd902feff26f7U, 0xf713ff1cff07fefaU,
  0xbf930f3f4f008d9U, 0xeef407350ce8ebd0U, 0xff22efe6f0122404U, 0xf219fc05f908cf08U,
  0xa0b12f2d1f917c7U, 0xcfeaf52ac60b07faU, 0xf000e30ad7fedc11U, 0x304dceefcf1ee00U,
  0xf3edeaffebdb0218U, 0xd1070af10cf30b0aU, 0x70ce803f8eb110dU, 0x3418f20ffee74cf0U,
  0x2d1fdee5edd8fe2bU, 0x211b2bdbd8d708d8U, 0x1d2602ffe5ecebc6U, 0x71016ec11120114U,
  0x2c010a0906f52c16U, 0x20fb35c6ad1a3002U, 0x13061ddceaf20df6U, 0x2d26f508042fc009U,
  0x12fe1afad9d938ddU, 0xdeff2801ad041016U, 0x1111f8e522f937fdU, 0xebf9c90d0c09f9f1U,
  0x30031318d108d120U, 0xfbec10e4cd1d26f2U, 0xfa3bbf35312cc5b5U, 0xde273b1d1de13aeaU,
  0xa9121de03010fe06U, 0xeaede3db1a01c81fU, 0xe8c41dc1300701ffU, 0xb51e11e32521d0c4U,
  0xaf1d04d7e8d73308U, 0xefe720c50bc3f1e1U, 0xc5edc1febc091ee7U, 0xf7e4dfe5f9bd23cbU,
  0xfb3a26d2c307f715U, 0xf6c701d3d901021fU, 0xf1082de61df1052cU, 0xf2cdd80ee4d6fa1bU,
  0x24ee29b3cfd8e7d5U, 0xf6f70210d9d9ccf3U, 0xf504c81ee310e500U, 0xf910e22d2d22cee6U,
  0x1af60613f2050e1cU, 0x25c308cc00ccf916U, 0xc2227dade22d5bfU, 0xc1fb1411c3e720ccU,
  0x2410cc05f52bf8faU, 0x1bdee5ebfc1124e2U, 0xfae330cdded132eeU, 0xb1280acbf6081bfaU,
  0xcbec2fc5ef3001d2U, 0xf518ccdfc6fcd3ddU, 0x8f1c5d90bedfdb6U, 0xe118d72ac300ef15U,
  0x12ce0ff8f4ecf5d7U, 0x3308e13032190cd0U, 0x35f7fadbef1313c7U, 0xd912e9f71d2d3623U,
  0xe708ecdd0cbd35e0U, 0x2cc509cbeadf12d4U, 0xdbc4c4e018f4fdaaU, 0xbd33d8bf1c2ccac4U,
  0xaf2d2c4360a31fcU, 0xd8edd4c8e5b212f5U, 0x27c012c70a340baaU, 0xcbcfeac1de04c6f9U,
  0x11edfa2ce2f7d2afU, 0xeddeec22f3f206c9U, 0xeaffc2cb0e1e11b3U, 0xe4f2cacdd1c0cfdeU,
  0xdabce3c3cae3e3f6U, 0x13cde02a10f8e4c3U, 0xe9e2dff014ef12adU, 0x19e909302825f000U,
  0x5132ef1e93136c8U, 0x38f7202bf1c5b1d1U, 0xf82609041de1eef1U, 0x322112ce1dbef0ddU,
  0x3b0118ccedfb0e0eU, 0x4f8fa1a0bd3f0e2U, 0xe724d1d0e528c2dfU, 0xe2bcf12b30c81af5U,
  0xc8cafbe51ef2cfe4U, 0x11e32e2b21c414e7U, 0xed1720e3f71fc3efU, 0xc7bf20f7c806f2d1U,
  0xfa09dd1d1421120cU, 0xeebe0403f920c7c5U, 0xeb1d09edebd0ef06U, 0xc6cd0f19efe62bdeU,
  0x22de35ca2efcc8d6U, 0xf926f72ee7fa2ec0U, 0xcb27bd29bf271bffU, 0xc8bed71fcb1ecafeU,
  0xf4eb26d8e9efdeecU, 0xeebc2e9c5fbfad4U, 0xf0390df112f5dc0dU, 0xf707e32aefd5cad7U,
  0xf61e0dd305ccfcadU, 0xdbf83320c4b8e1beU, 0xfde8dd07ded8f7d8U, 0xd8d0fb32e8000cfcU,
  0x42506e3e9fffc02U, 0xe7e9f6efeacfbf25U, 0x152b0125f124cb33U, 0xe9b7e5dac3fe360bU,
  0x3e9f6e726ea38f8U, 0x1016351a2c1b8bfeU, 0xe2f6c1e81b08ed02U, 0xf4fc37ec231cf005U,
  0x2a15fbe3d4c90fe6U, 0xfe0effe9fce6c225U, 0xd1f51209fd0626daU, 0x1af2d5ddc93cf4fcU,
  0x24c1061ce60be2cfU, 0xd304f3c108ec071cU, 0xed3011cd09ce20feU, 0x20ed33110de7c8c7U,
  0xdc22e6d6092612e7U, 0xc138e5f9ed28d116U, 0x2e10f5c932ea2e0aU, 0x3b2307f21ee1af0dU,
  0x5f5cdbfced2eac6U, 0xcfdee92a02d329faU, 0xd5bde0e01a27f715U, 0xd027c63bee1ebdefU,
  0xd8ccce0ac80c14e0U, 0x2300c9dfc3f5cc00U, 0xf7c4dfdce820c10eU, 0xe6c6212bd1eae019U,
  0xd0d203bb14c837ebU, 0x1dd6e7d1171d0cc8U, 0xa9c5d0e8eef7d323U, 0x81fae1e911db0932U,
  0xef2d11eac4ca35b2U, 0xe1319d0da1efbfaU, 0xf4fab03116160abeU, 0xc0d0fb0beaf9e01bU,
  0x5d9fccd2bdc2bf3U, 0xc3bbede323101d0aU, 0x161bb7eb0a1b09feU, 0xd22a1ed6fb2218ccU,
  0xc7d2100dccd4f21dU, 0x51c28d922d6050aU, 0x21ef2ad4c5091efbU, 0xe933c0dbcecbc607U,
  0x28fc32e0c8fb1034U, 0xaffd6c0fdf6ddeaU, 0xedfed61416eac4f6U, 0xd2fce900c0cbcbe6U,
  0xf1beea102e34deedU, 0xc502e41a27f90dc3U, 0xc3fdf314cef71bdaU, 0xc339200cce00072fU,
  0xd8262ee21c1121cdU, 0x26e7ee11fce62004U, 0xef25232e2533beceU, 0xe18300e001401faU,
  0xef2bde0eeccccaecU, 0xc0dcfacacc10ac27U, 0x12e8c81e1ded2106U, 0x1f29010bd0d1ed2dU,
  0xfb2fe2e5c0262300U, 0xd2da1cd5e6f314e1U, 0x3ccf9fcc3b9d1d9U, 0x1804bde21dd5f8d3U,
  0xd1041314c3bf1a00U, 0xef092511e5e0e2e7U, 0xfa200615d4f6ddf1U, 0x512ef22c3dc0928U,
  0xe8eeecbfbd282de4U, 0x120f1dbdf6f8ead6U, 0xb1d91f2df6d9d014U, 0x26c4220131270bbdU,
  0xdc02cd172bfbedf5U, 0x2c04d1e5cb06b80cU, 0x18dd280afbd433e9U, 0xff0009f9c3df0cecU,
  0xebdbcfb8c522ead3U, 0xd41edbdd15e9cebbU, 0xf223dde3bef1d60aU, 0x1f1418d411c92217U,
  0xe312dbe60d2cea2cU, 0x427c62be0fde6fcU, 0xd540cf28c4071923U, 0x1bd8ee16e9d0f920U,
  0xfbe50ee4fc071dc1U, 0xcb283002261f1223U, 0xd322d7cec6cd2fafU, 0xb2d41deedbf9121aU,
  0xdff2b3122df6e7b2U, 0x519c3bbd1ebae12U, 0xb8fe10fcf4e916b7U, 0xb114ebdf29e604bdU,
  0xbced2606e2fcf403U, 0xd0804efc5e4dff5U, 0xc5230dfbdfd21320U, 0xcbfdefd3e9ebfe1aU,
  0xfad01990c6d0df38U, 0x27d723f60d0fbed4U, 0xf4c6df1833c8180cU, 0xc6ddd7202a2f1526U,
  0xd7d9038ee511c521U, 0xe608281c13b72adeU, 0xe428d019f59eefc8U, 0xe32005f3f82b1820U,
  0xed150dedfb051820U, 0xf40dc2fafce6e0c7U, 0xaad8bb1e17bde0adU, 0xef1cebf7121de4fdU,
  0xe4c3e82d0a18c62dU, 0x306cce4ec08d11cU, 0xabd0fe0c2a07fed6U, 0x26d1ecd422e43adcU,
  0xb8e406ca0bd4fef6U, 0xe3bcfec3042ad1e1U, 0x3640dfedca16cb14U, 0x3b07e71023cbee09U,
  0xf4d3e61f2bcd05f5U, 0x19342728d9d61b15U, 0xc0d0c9feed0abd02U, 0x2bfdcb1bd607e1d7U,
  0xb7bd1af2e8cf22f9U, 0xd100af4e8caa7d4U, 0x20eab3ce0b1211daU, 0xd19ecbce407e116U,
  0xd3d5fc01c82bf500U, 0x2bc9ff29eee2d11cU, 0xab01b9f604dcecddU, 0xc925cfd6c3df3a1bU,
  0x300bfff72cf4e0baU, 0x26ebe5ceed15b9edU, 0xd1c1cb190fcbeae2U, 0xffd4f0300922cf01U,
  0xedf6e1defee2d116U, 0x2d7dc2fe6f4ba2fU, 0xd4c219fbf5bdc6e7U, 0xcd1fc6fbdcc0c9fcU,
  0xcfd2c906cb052025U, 0xfbe20200dcd4c3U, 0x1705d604f8bf0a12U, 0xde0d010107f5e3cfU,
  0xebf8cb14ea04d1dcU, 0xe00e131cc6220814U, 0xd601cec7cb23d9fbU, 0xc0f2ec2f05fc16bfU,
  0x5112fbad431f82aU, 0xe6c6bf23f20dfe11U, 0xd2fae1cde50116d9U, 0xfc0a2dc9cd061302U,
  0xd8ec2220002c18c4U, 0xf111cf2bcfddcd1dU, 0xd902121c13bce10cU, 0xad8eedac4e2fe11U,
  0xf516ebd3c60cd909U, 0x30e8c1dc1bac03d6U, 0x6ffc11cd8e3f3f6U, 0x812211f0023ea13U,
  0xebd7e6e4d334f0e1U, 0x9fbd8cdc2a9ecd0U, 0x2915e5d8dacc26f2U, 0x2be8fce0e829052dU,
  0xfc1ef8c930ebe4e8U, 0xe5d70ae7d1ed32ecU, 0xf500fc09e1dcfe11U, 0x6d9fdf72c05d90eU,
  0x531f2fec6e43a1eU, 0xf8ded13209a93af2U, 0xc103ce32d3061d39U, 0xc5df17c0c0d7c409U,
  0xd23c4fc192615e2U, 0xd31fc6d0db183cdaU, 0xaed62bc406b4efe4U, 0xd83ad701c2f301c2U,
  0xbbfceec7df1fdfe4U, 0x22bd252418ed0edfU, 0xfff3e5300202c61fU, 0x1ff311d21f16da2dU,
  0xc71af208cede32fcU, 0xbc2b092ef5dec913U, 0x4d04111a3c15f01aU, 0xf2f9efc7e5054c07U,
  0xf521f70d1cf3151aU, 0x1101ac081a1127faU, 0xfe041b240e200d27U, 0xd1e6c7f4daf841f2U,
  0xf8f9eff9fdcff6f3U, 0xf9f4b2ea062a0dd8U, 0xedd4dafcffe5f9ddU, 0xe00ede0cffece102U,
  0x1de90e06ddf328fbU, 0xfeece03e121f3fbU, 0x1b1105fade09bc33U, 0x5d71d20e8eaf8e3U,
  0xe6ede3fb261b0edaU, 0xe5e8f7c8dcfff419U, 0xeef2b8c9ccd036U, 0xd7f1f2f6e2dbffcdU,
  0xd303ededf8dbebe4U, 0xd9f6ebe8d23ed41bU, 0xabafb0705ec0d0dU, 0xe7e4ecf7d1f10fefU,
  0x336cae7080642eaU, 0xfdeaf0dcf936f5edU, 0xf10a000b04ff27f7U, 0xeee11fee9f8e4efU,
  0x31106ee180219f2U, 0x242a091bfd3c1210U, 0xec71c1003e4fd05U, 0x5f91a3005fc2ef8U,
  0xcefb231b0403be0bU, 0x190bc724f32c0dedU, 0x15051c081f0ae7e6U, 0x35d812351b3d4e19U,
  0xe6071430360b0c60U, 0xedf3e816f25620ecU, 0x19e219e6030a10f2U, 0x371c04f72409041aU,
  0xcf0c0fc40a010f19U, 0xf511dffbce1206faU, 0xead7fe0e0afbc80dU, 0x2605e2b7eb14f20aU,
  0xf806e6e0f2f7141cU, 0x30edaecfb12e7cbU, 0x30ebe4f714cfaeffU, 0x2018cc29ee1a0c25U,
  0xf622f719f1e3e40bU, 0xcc0eccf801c3300dU, 0xdcf9df0014dbbc0dU, 0xe312f7e019252419U,
  0xeef9e22e9df84af2U, 0xfd25f4e2d9d61df4U, 0xf01302eeff1ee7faU, 0x1c0f0c10e3eff0f9U,
  0xe1fef406e7f5351fU, 0x931fedbf3da14daU, 0xdb09ea02df090dedU, 0x5f21c0f120d0805U,
  0xd7222e0c21f61de9U, 0x2709f217ce2f02ccU, 0xf4f51aebe2f62903U, 0x6f8142f47270102U,
  0xe10d0527011ee939U, 0xe2aef1ef8ffdf0bU, 0x1a1110f6e118273bU, 0xea1d031d2ae23bd9U,
  0xfe15f0fef42a0c1bU, 0xf40c21f2c70c0fdeU, 0x25e92bd0ef270906U, 0x1e6eb0806022dffU,
  0xfdef01110ce2e8eeU, 0xd6efe8fae2f0d1f6U, 0x310cde00211cbedU, 0x122aeefd04160f3aU,
  0x211b253705140416U, 0xe37381cfef90d00U, 0xf502f60207e2ba37U, 0x1b34cdd23420d92cU,
  0x21321d1ac309cc03U, 0xde04030dec1fe0f6U, 0xeaf4f60f0eb205daU, 0x272dc1cc0bf0ee22U,
  0x5f5fdd5030a10feU, 0xda0a0cbb15e5fc14U, 0xeffe021d06c7d9c1U, 0x2015ead31a040c12U,
  0x8e20a06f4491addU, 0xc03220517162228U, 0xfe0a062118ec2e52U, 0x222d331c0305fe11U,
  0xedfe1019dd0a3304U, 0x1f22f007330f1dfdU, 0xe9e51ad6e238220fU, 0xed0f151d02d10301U,
  0xf7f2011a0eed05f8U, 0xefc093500e91cf4U, 0xce71fd6f3faf5d7U, 0x1afae6dee2002109U,
  0xf60d0a29e9f32634U, 0x23ed02e602ff2606U, 0xf4fff0e81711fe3eU, 0xd150f0adf22f7d3U,
  0xd916faed08f821f1U, 0x3833e9fa0e1bfee8U, 0x21f6e0c8fce9f436U, 0xfa1010f01af3f6d3U,
  0x19de1f061be318cdU, 0xdc411909d4fedbbeU, 0x1a3da03dae5f429U, 0xeb19c7dc15f1f2f5U,
  0xe60ef7fb01f0e7cbU, 0xd417d418e7c7ed1cU, 0xed9c6dfe4e3beU, 0xd5acead8d5ec15dbU,
  0xf0e4d5f32ffff4d1U, 0x1df2dc941dcbfbf2U, 0xd0e4dad7ca0df3f2U, 0x3e11d09fdd004bbU,
  0x1aa8dddc0c2006d3U, 0x7dd11dcd0d9f028U, 0xeb0711f7030a26d1U, 0x22e90a2de8fbe6f1U,
  0xf3092821fc3f5008U, 0x7fc3bfe2df6031fU, 0x1f6410d122f1828U, 0xfd2e3d371507ba21U,
  0xdb0d15112503b921U, 0x1eef1f180ce404fcU, 0xd3d8e31202fbd62bU, 0xde16cad21cf9dd1fU,
  0xeb29200010d111U, 0x1f6e6ed019bff17U, 0x2bef08e105f60730U, 0x130a0ef5f32508e3U,
  0xfc270017e50bdf24U, 0x12fcfad511ae2102U, 0x511f8dd283e2c45U, 0xc021b1c1d44ebf7U,
  0xf9012607e1d3360dU, 0xd002daf10bdf11f7U, 0xe3ece7d60c35d448U, 0xc5f711f31d1beed8U,
  0xea26f6fc1cc0e3a0U, 0xfa2beaef091c18f8U, 0xe1fe06f2a7eed49bU, 0xcabd19f7f0c124c8U,
  0xfb1b81f709cce3aaU, 0x290218b8e2f9cef7U, 0xdcf7f808f7c9edc0U, 0x3bb0cc8daeac5e2U,
  0xebfbcfade70cdfeaU, 0xbdbefb4e7d13804U, 0x5e3f028f0fa0819U, 0xf217080de9e2d4c6U,
  0x1202e1151dfd41f7U, 0xf5fe001de8b80aeaU, 0x143036e6031cffccU, 0xf41a3936e6e2a2d6U,
  0x22dd0326e41c1202U, 0xf5c5186b0130f411U, 0xbf1f208e51eeb35U, 0xe2d8d813eaf4041bU,
  0xf6f60913bafcefe1U, 0xf9e0ded8d6dffb10U, 0x1dd1f3210cfff929U, 0x3c290602fa141114U,
  0xe81a311b0c12d228U, 0x200f010aebd4de23U, 0x15e2081ff72f331bU, 0x243f2418132114feU,
  0x13a50e91d2712fdU, 0x272717041f0a0705U, 0x1048faebb0131e46U, 0xe4291604140af5cbU,
  0x1509d0df02da13d7U, 0xea3f2112ca09051bU, 0xe8e4070cb414d8dbU, 0xd7e4f8da17c50ce7U,
  0xbf3d3cb301e07e1U, 0x28e42cf0aa34e9ecU, 0x2f5ee0de7ca200fU, 0x14eaf1f6f1bdffdfU,
  0xfae29c03f60bfdf0U, 0x22f40ec11ad9f405U, 0xf31a0e1d0a1622faU, 0x7e0280bc013f0d5U,
  0x1c18cef733271bfeU, 0x231f25fb082b050aU, 0xfa16ff1d14eae8e5U, 0x2a0d162fe5fadf0fU,
  0xe5c30429fd12ee27U, 0xed00fa1222133ae0U, 0x2215f3f626d7f8d9U, 0x1f1eea00e6232718U,
  0x38f6ef13d8df01faU, 0xdb1afa0afdf32a1cU, 0x1819f1ea2100e624U, 0xc161a19f23627eaU,
  0xf3fc1fee21f6ce2dU, 0xc506f8dddf16340dU, 0x1d0605ebeff314fcU, 0x1407d9d0071415f3U,
  0x180b0d18ffdfa3e6U, 0x9e81eeb04fdd4ccU, 0x1bf00909090cffffU, 0x3e6020de1f51dfaU,
  0x151fd30e03c2e8efU, 0xded51305d60cf9eaU, 0x11d010f09e2e7f3U, 0xe40df3041aeb06ebU,
  0xf8d4ccda17b1dbccU, 0x10414100fd7f200U, 0x18dee501d4f90154U, 0xc6b6f307f7acf7f6U,
  0xe32dcb170901eeeaU, 0xe0f11e043607ed14U, 0xe20bda18ef00caU, 0xf9e307f1faecf420U,
  0x1340160d10f421f9U, 0x39fa1d2113f4e6cdU, 0x1d0b19ff07f8f7efU, 0xfbdde924ef04122cU,
  0x23fb11fbea11da22U, 0xa1c2f280af91401U, 0x210ce50616e3ff01U, 0x121af2df0816052cU,
  0x2c0318dcf607fc34U, 0xe509fbc6c0f3342cU, 0x20f7fa0006e4031fU, 0x18e31719e90b74edU,
  0xe914fe18021b0f26U, 0x3af5f6c8cb50fcddU, 0xe0101d306e4d9fdU, 0x1cf9e0f8da1135f9U,
  0xfef70c15e5d5bb08U, 0xddb70adae1111fd7U, 0xe4f7ffdb0ed529b9U, 0x6d71413ffedeed6U,
  0x1eed12252012e5f3U, 0x15e60dee080b20d6U, 0xe3eedd0b15bcf743U, 0xf5f2e600cbf4d3faU,
  0x1d5f3e4ea1bf0f3U, 0x7ddf8fc251f321bU, 0x5e9dd0925fbcdf9U, 0xdfd8f8d70b17f6c5U,
  0xe8340b1721f5e4edU, 0x1fe9bed02f050ce6U, 0xe6e3c8ef18d716e3U, 0xf5fae1f2f9ec06feU,
  0xa0e2e06e9faf019U, 0xbf6ebc822ca20ccU, 0xe1215b928f80604U, 0xf101e627f41f17fbU,
  0x3808271606df1e0dU, 0x3cfa2303f9fafce9U, 0xbb24d8b4021bdc2eU, 0x21e1f02a1d0222eeU,
  0xd40d5926d8a80fa6U, 0xb31e01bf1e2fadbeU, 0x27ae86beaab4ef37U, 0xcf2ff1ba40ddebe8U,
  0xcecae5faebadedbeU, 0xf4c9e1e0eaffb633U, 0x3f16400fe011ebeaU, 0x401bf3e6a3c3feadU,
  0xe34b11f67adbb9cU, 0xd799d9fc15bedab3U, 0x31d0c523305a115cU, 0x23c213d5c4ddd717U,
  0x953cb4bbb3d82a00U, 0x1a98b51230ba4b0eU, 0x3d7eb0dc1700be5U, 0xe118e33bb3a54716U,
  0xe7d42e2cd0a3c6beU, 0xe5b94a4e9f6fe447U, 0xb7b2e8e7d91e2f5bU, 0x80edcc708e2ea1aU,
  0x63b217000cb91bd1U, 0xd3eb1af7bcc20002U, 0xe1026cf3bebd5bdU, 0x1ace02ccdfc2ea34U,
  0x19431e1cf1e8d2e7U, 0xd046bdd3fd44c20fU, 0xdc1ff804ea1663e8U, 0xbb26332cdcb30de0U,
  0x7234c854e2df140dU, 0x243ff5aeb2660303U, 0xbe1dff1e1f0b29faU, 0x47f1ccef2eb1fffdU,
  0xf0f1b1c19e2321ddU, 0x29da1de327bec8a8U, 0xecb228054659a0c8U, 0xa321a9083119bee0U,
  0xfe0fbbef7ae15ccU, 0x2214c7f6f30ae73eU, 0x5e5daa1df20286a5U, 0xb9ccf038d5ad17e4U,
  0x43f90d4fdd4fe0cU, 0xfc9fbf6febd0208U, 0xf8ecf7b5e6cb43d1U, 0x66bfe23901e30b15U,
  0x247e03ca5bfd1d9U, 0xf1e106deee0aecc9U, 0xf0a601be83cafa3U, 0xeb038d2ac0a6fdbdU,
  0xfc22fa97f9aa34e4U, 0xde883a3d2926d99cU, 0x9eb7d7980457e30aU, 0x9e10d70af8f206c0U,
  0xdff70a20e82d35afU, 0xcde618da9bddb818U, 0x633833eeee30f8fcU, 0x22c302f053cce8a5U,
  0x46e7bc6fbf2b089bU, 0xdfc70d2032fe22a5U, 0xe4f4f532bfd1e196U, 0x102eac00f906bf1aU,
  0xbccd3651d312910U, 0xefff0f00c42006d5U, 0x1322c66bd30ff7d1U, 0xd9e23b1b14e8cd38U,
  0xf2241b16c1bcf5bdU, 0xf8d2ab9f37e9cb1aU, 0xcf41b0c31e6bc0aU, 0xefc490d1d9bcfaf0U,
  0xeacaccd9becdb8f2U, 0xc5eea5da15fcd02fU, 0x22f6fdf4dc1fe4baU, 0xb6991b23c9ca30eaU,
  0xb9db0723ced04315U, 0xb195a417090ab2e7U, 0xed00d92401defdc8U, 0xccf0f6be05ed16d9U,
  0xc0bef40bc7dfdeb4U, 0xddd9aadd27c8eee8U, 0xf606e3bac5ffee23U, 0x17d8002af1e9aafdU,
  0xfb2379dddcbdbfdU, 0x1a9f31ee229f8afU, 0x15e4cc23e91e0c05U, 0x9fb313a21ee93bd0U,
  0x200c30cdf3e706cdU, 0xe0fd4713d72a39a3U, 0x1cbed488ec7c60aU, 0x3cd1a12aed9e3394U,
  0x45159f553ee90a00U, 0x1bf83c0dbf3588c8U, 0x1705c519c406f9d9U, 0x1ebdbc0e689f3afU,
  0xf82de1c0d2e9eae3U, 0xc0e5295211f626acU, 0xc8f1c4113c15fd18U, 0x18bf062dec2217e6U,
  0x1fcf1e0f0a203407U, 0xda4d7031bf715aaU, 0xc7af9e15209ec533U, 0xb910c62ef0eeb532U,
  0xd8efd324dfcbe3a5U, 0xd0aafde519bbc7efU, 0x48df52980bc5c3bfU, 0x23cacdbbb1ef1f1cU,
  0xf419dac0e62332cbU, 0xc0c4d2c81328bbccU, 0xb1db11930311b1b8U, 0x11d0cab82ce80be7U,
  0x130ddffddb32cf40U, 0x2512e9b10ef8c033U, 0xbce08ae7e400ec13U, 0xdc0852dd1f0efb4U,
  0xe5d6e5eff82fe7c3U, 0x40e2320021ff0b41U, 0x52079ded4711caceU, 0xec122cd5cdeef2a8U,
  0xfbb7d61609a0e6a4U, 0xdbfa630a32ea0494U, 0xa2e649d5f6cf1be6U, 0x2111d9c51afd1c97U,
  0xeffadf2e240b1ff7U, 0xfd274fa736393102U, 0x981410d03ba731aeU, 0x1947e24a10eccfedU,
  0x69d9112cd2e63ad6U, 0x1ae0ca351ecfc211U, 0xc1ddd5cdcd550b2fU, 0xf0bfef311fde3d40U,
  0xafecc706bddc141dU, 0x38e3a5f2d9cbd2beU, 0xc5280e291bd9a6e6U, 0xf3aad9c1b114b808U,
  0xd2cbb11617361fb5U, 0x9d026a5efd5d4caU, 0x2af99ebf2b06f714U, 0xdb08d60db1fdac3dU,
  0xc90b372ac70dfaefU, 0x34ced628b42f5ab1U, 0x55d637c402a1d5dfU, 0xc9b1a31bece0dff8U,
  0xcf290939e9aa132bU, 0xd1f21fb2bf1eda95U, 0xc2f2323c2ae11e04U, 0xc61db743ae2b93eaU,
  0x12fcfe5313fdd5dbU, 0x274b020c0d622925U, 0x2e03e97527a8ae75U, 0xefec179f2500bad1U,
  0xb7e1d4a70338d036U, 0xefdf12c5cdef392dU, 0xdb9bbdb654615deU, 0x2724e5d7fab34e05U,
  0xc415dca2a4d01b4eU, 0xdc07faf2ed605110U, 0xa53f0832e9e9e509U, 0x101910e8ccfbdafeU,
  0xf7a7b6d4df0a0030U, 0xe802ecd7333a51afU, 0x50924d2b235f6b2U, 0xe5d133fdde3ac0c9U,
  0xb6c3da54e6c9daccU, 0xead6d6dbcb0ff9f3U, 0x2cd836fcb2eb09fcU, 0x13dde028f822cef8U,
  0xb8f713df0026192cU, 0xfcf2942ddd3a0237U, 0xd722d702f4e799c9U, 0x29d1b08b9dd8d004U,
  0xf1fda7cea6f3bcccU, 0xeef810b1c2ed5d69U, 0x464606c81ce98ee4U, 0x21448c2130147bfU,
  0xa8f8ab3cd4c3e328U, 0x720af08e1ade89bU, 0x521cc99214b1ab9U, 0xdcf1ef3d1cfa31aaU,
  0xc1beecf70c01ddb4U, 0xf80054d8d4c405f7U, 0x16bb1bc6a91eefabU, 0x9ebb264ab7e701a6U,
  0xbc26fac132570dc0U, 0xb4eae8e90fb60442U, 0x1dad50f09c1e17f8U, 0xcc11ec50f7284806U,
  0x1b9631032c0c101eU, 0x2dffe2da9ce1eef5U, 0x9ae6c1e540aef3e8U, 0x392eebefe858e9f0U,
  0x1eda50d38bd336beU, 0xd5b5aa96f20fb805U, 0x1f27b5d9da1f0b1fU, 0xa01050bb03a4e61fU,
  0xe9a230bcc701e59fU, 0xcd2235f133f4d29cU, 0xfe03eed2a2d923e1U, 0xe511a207c10e0a27U,
  0x501d6d21ba73ba7U, 0xe100a5e5156353faU, 0x19afc0eb3b1040c5U, 0x27cef49fd3b4ed0bU,
  0x643d809a2ba0dfcU, 0xec5c82ad0e218a7U, 0xcefce70e04e5c719U, 0x1525cb05bf202732U,
  0xb09dd0a632bce4abU, 0x1f0e3f1fa08d443U, 0xd9a5e60048ce111aU, 0x52fec0e12435d101U,
  0xd9e09cfb1ee2261aU, 0xc2ca941d06d824d7U, 0x1493e5d55710c215U, 0x2fb14d40f7b840a8U,
  0x93ed0fe090d3337U, 0xdaf2c407d5a65a2fU, 0x1c200708b5befc07U, 0xeeb0f548ce01cb2U,
  0xdca71eebff051ee1U, 0xd3ccaa9ed2e1ece6U, 0xd399e4fb97bbdeb0U, 0xe0f71c29c6d381f1U,
  0xac0303d9beeb3e0fU, 0xf5ca94bee01dde0eU, 0x70eca7dcd015b49eU, 0xd2c0d23035f30612U,
  0xe7ebeae2afc2350cU, 0xbac950b80ad1f1cbU, 0x3aebd48fda29219fU, 0xe8fff3bffbaa1b21U,
  0x380c01c7a68d0d26U, 0xc414c0f51426d9ccU, 0x12a297fdbce3fcf7U, 0xfc2adaa7fc27f6c3U,
  0xab1a00d9872fccfaU, 0x3696e04e20dedcf3U, 0x1d342eacf9dc1765U, 0x14b8c3fea2d0ce32U,
  0x670d23ce87a713f9U, 0x29e200dfc4e9c5d0U, 0x4505d518f3e9035aU, 0x3632e1e8b6c6d68dU,
  0xe321daea01dc420eU, 0xbb15ec02d91900d4U, 0xe98de7b9b5af90b5U, 0xfc7adcdf605f208U,
  0xc6f50e3e17aef0b2U, 0x34f506b8d8e71112U, 0x54c5e7ce11158fadU, 0xabeeca0c20a00a48U,
  0xc2c6bcd721230436U, 0xf2eccbd7ccfaef12U, 0x2b14a0b4dec3f0a8U, 0x5bd17faf8e52418U,
  0xc35cc6cb02292f20U, 0xea18c6a40719de01U, 0x3642d70cf9d20d34U, 0xdfbc302f61438feU,
  0xe22ac42649ff2b01U, 0xe4e6fecb3cd92901U, 0x2c372ee612f0ebfdU, 0xd4fc001c12ec0b07U,
  0xd82ff90bf1e82416U, 0xe1ef13d438af07ebU, 0xecf307d912073c10U, 0xc4f10840faff11dcU,
  0x103af40307201b0bU, 0x324a18112c08f416U, 0x211cff050d2251ebU, 0xfcd713eb35ea61dcU,
  0x2e0e241143f81107U, 0x101d3c6ef15306c7U, 0xc0d122210b020dd1U, 0x1e0cebec0802221fU,
  0xe0dff4fb226d2721U, 0x5bf0a090e01001cU, 0xe331dd06f9eaf31dU, 0xdf0c2af301f50f00U,
  0x1d05df1ee9f96301U, 0xea1602b810bd0715U, 0x35f8f81ecc15ccf4U, 0xeafae80df4fa471fU,
  0x200cfa0f1e050dc6U, 0x483e2cc9ef2af5cfU, 0xf0d709f9f3efdacbU, 0xe5dd052cf9f3252cU,
  0xfdef1f20e9f627f0U, 0xf36ee59191cffe5U, 0x21d120dbf8dbf0f7U, 0xe106c7e9dbff44d9U,
  0xb2ed2203f41e32f7U, 0x3896d00c23cb0523U, 0xe5bc130f16eedf12U, 0x3013c90ad303fedaU,
  0xd4e3ca0912ea0f50U, 0x51ec1ce26d31b05U, 0x4f204f3cde92808U, 0xfcbb73cdb2d17d8U,
  0xc22b1327e60d47f0U, 0x5800dbd61cc71e1bU, 0x3c161106e030fe19U, 0xfc2c051a101656e4U,
  0xcad8f1e9e8f72244U, 0x27ea0f16d8110ee8U, 0xdfdfecc401dbfcfcU, 0xe9d3f507da2071fcU,
  0x1f4c1081aed161dU, 0x3b4b0bf3def3f5ffU, 0xd4dd10f4fce3e8f5U, 0xddf0208e6082b0eU,
  0xf4e5d916ce283743U, 0xf5f629f32dc3091eU, 0xe71be30218e9e3ffU, 0xf31ffafd1a2a2ef7U,
  0xafdfffd0103292dU, 0xf0e70cc32bd4ebe2U, 0xf3e4ef220dcd0af6U, 0xd50bf8eae8001ee7U,
  0xbe5fd11c3163422U, 0x231d03154bf0fcc8U, 0xf6e1e404d0eec131U, 0xdf2adcff170f251aU,
  0xbed9d6d1d9f44fe9U, 0xf7cdd1ddf6edc7f6U, 0xdcd9ec1fdcf6dcedU, 0xc6d9e910c0e5cbdbU,
  0xd21bcfeffeeeed18U, 0xf1e2ceef250ebe07U, 0x7ddd518e0fddef7U, 0xec0dba2c081230e5U,
  0xe819110eec104b24U, 0x5ef202f149d6cf22U, 0xf8e001180de00c20U, 0xe8fdd803151f3ee1U,
  0xfb53e83000daf519U, 0x3c7ff0a41f2feecU, 0x42ffccc3fd11700U, 0x1f01ecec4aff3403U,
  0xde11f0feedef327U, 0xec1cedf22be6eb0fU, 0xfaf2cd4107eae92eU, 0x2536c6e50f0b43d7U,
  0xfd1aea1a040f2c3eU, 0xc361bf9f0ee11f3U, 0x12c22a032ee4e4fdU, 0xcecfd0dd81b2bd4U,
  0xf9ebd9d6d1d61311U, 0x21fefad31efefd14U, 0xf4b5befffae3e1f2U, 0xe0fe0709ce08eefdU,
  0x26bbdae8f5e342fcU, 0x392ed7e10fd810ebU, 0xbef0edaccd5c804U, 0x18faccd3cecc491dU,
  0xd4fbc621eef9ec3eU, 0x1005d6f92b5dd7f8U, 0xd2eed01816da02d2U, 0xf8f3e62ef5027d2eU,
  0xe7e9dc1de4db1251U, 0xd7f2df12f226ffU, 0xee9ff02ca1beaf4U, 0xd8fde23513e33d03U,
  0x5f412ddd3d61217U, 0x2afed9ed1cd3fff1U, 0xcdee04d5d9e5defbU, 0xefeff2d302f1b2ffU,
  0xcdd1e1df111e0d32U, 0x170e32c6e69de7ffU, 0x12ff7ebb8ebe925U, 0xee0d05d8ec1703c7U,
  0x2939e8fefae60f05U, 0xdd262bc40fd4eef7U, 0x1608e40844dc23daU, 0x51fe072fed12512aU,
  0xad2e6f4010a1e31U, 0xf2ee18db14315113U, 0xfe11ef11fcefccedU, 0x1cfe0d04fb130a03U,
  0xee1f201da184d6cU, 0xd2e22e1ea0f2c11U, 0xe4feb1fa18db0419U, 0x1632f2dcf2060df5U,
  0x1015ed47f10a6833U, 0xfe39d7ea2de93be5U, 0xfa11ffdb25f8db16U, 0x1bffcc08091072faU,
  0x1128dcf1f1ec181fU, 0xfacffdedfb290509U, 0xf243fd04e1d11024U, 0xedfdd9fbdae97b2eU,
  0x5f103274409eb30U, 0xe52200e4f33f2efaU, 0xdf5f123ad6421f13U, 0xc3fef105041bdff6U,
  0xf0200fc933d64025U, 0x5ee9e213cff5f1d0U, 0xc09cd16ca39cebfU, 0xf5e804c2fec4e810U,
  0xe9f0c31346e4011fU, 0xf6dfd7c000efd728U, 0x233ef5e5eafaeb4fU, 0x1ecff918f7d925deU,
  0x31c051afa2b14f7U, 0xe7b50d002cf50c0bU, 0xdd110a04e31204f4U, 0x3fa050e1cde0fe6U,
  0xe4dbd4d1e20c2bf1U, 0x16050afbebc50defU, 0xf70f0bfbd8fbf5ecU, 0xde5d205f9f026f4U,
  0x1b02dbc70c3d09efU, 0xcf823fabb01d9f3U, 0xf6f22efdd0c5fbe6U, 0x3036ea06ff0c1af7U,
  0x2e180df7ca1b3d16U, 0x1307e8eef001c4efU, 0xf4def3adf0dde92cU, 0xdaffe6f10de57ff2U,
  0x2230b928e7fbde54U, 0x60906d923d318f6U, 0xcff080c1706190dU, 0x1514230c543105d5U,
  0xd5285e11fff30951U, 0xfbfce831090c26d2U, 0xf91d02f4c41e3365U, 0xeffb0e651c1b37ecU,
  0x111f070613e02cf5U, 0x3208eb0d0013d6e9U, 0x1c142eeed11be3f8U, 0xe6bc0cfdd71620d9U,
  0xea4435ec2bfdf9dcU, 0x250df810012a2b05U, 0xf2f9e702e92b2845U, 0xf6f20920e41eebdfU,
  0xd801fad81ef505f0U, 0xf5e8c8b82cf5f2fbU, 0xe1010128bf07ec12U, 0xeeedf367dfc019ceU,
  0xd2e4e11711fdfcd3U, 0xe4dff2cbd8f517cbU, 0xf9fd2aebefe3d2fbU, 0xd306dd16ce162adeU,
  0xea09ebef0bfb060fU, 0xd8e9fa0218e8fa17U, 0x3f0f2fcf9bcedfbU, 0xceeac3dbfb0924dbU,
  0x110df207d2fe3dfcU, 0xf3f01ae4122418d4U, 0xcfdee0a0201d80dU, 0x1f1e61623132618U,
  0xc2ff37f00afa1b2aU, 0xf50be107110d2ebeU, 0x40e007240a07d937U, 0xf900fa1222fa2bf5U,
  0xd30a13f204ee2103U, 0xe4e5d7e30ed8f315U, 0x2c03ff14d60f233bU, 0xc50a1b4301fb370cU,
  0xeb63f4d6d5e6611bU, 0x6e0da1debedc7e1U, 0xe9f13110e116f2ddU, 0xec17d7071ae63228U,
  0xbf1edfbfb1249f0U, 0x1a03dde4b02502f0U, 0xcacf0e03e61b1219U, 0xfdf5eef3faf30ff2U,
  0xd1fae3e0f03340d8U, 0x9edd2bdb710d63fU, 0xfc02133dd506dfb7U, 0xd0df1e12d2f81ff9U,
  0xcee6ebd13af431ddU, 0x2718d0fed70ae7eeU, 0xfdfbe00fd90ad403U, 0xe0ece8010cea18ceU,
  0xe20c05fefe0219ecU, 0xe626cdd1dff3d30bU, 0xfde6eef0f6c4fad3U, 0x20fe9030bf54c0cU,
  0x2334fd32e6fcf407U, 0xe6e6d2ee0bee41ebU, 0xf8e618fff003ee22U, 0xeaf6e423faf73cf7U,
  0x11de60614c1171fU, 0xedee1416e00502f7U, 0x2feae9ebf6f5d727U, 0x19f6edfee1f56d09U,
  0xf9ffc3f6f9eb47f9U, 0xf0f605d00c08f910U, 0x35e90a0004031732U, 0x1cd9de52020969b8U,
  0x19311b55fb1e4207U, 0x32d0281af6fd1c1cU, 0x132703e1112bf9e5U, 0x1017130cd9107cd1U,
  0x11d1e42ffdce2e2cU, 0x30e51ef6f10b1acdU, 0x1109f8c3cc0edabdU, 0x3e02ef220c1e43dcU,
  0x33af85909012010U, 0x18f91f29c81eeb4bU, 0x7d528131df408cdU, 0xfe153e3802f840f1U,
  0xfaec2c16e8ff4e4fU, 0x5eecfe1ad6e91dd5U, 0xead700f80af7d106U, 0x121424ec0216e9f5U,
  0xf3282430ded3ff33U, 0x12f123dff80c09f4U, 0xfff8ebf90bc0e1f6U, 0x172facf715354221U,
  0xe2040d30d8232133U, 0x2ee14170de61ff7U, 0xefd5ee07f903da08U, 0x1e3f3cd13ff1f00U,
  0x1de8fbf9ea0cf209U, 0xfd0ee7f206ef07f5U, 0xe3f1ff2001e114dbU, 0xf6090df6f901d715U,
  0xfafbf1f2051405feU, 0x90f0ddd1edcfaddU, 0xf00204f6fcffecf0U, 0xf0f4f8d0ecf9ee03U,
  0xee6f3f1ff011608U, 0xdc02e3f61ef0080eU, 0xf106fd02e40a03eeU, 0xe4f505f50701fef7U,
  0xfcf2f7f4ef1138fbU, 0x2209ef10c8edf7f0U, 0x6f9010f012b1012U, 0xef011bb8eee8f0fdU,
  0xdeaf3e0060ed817U, 0x622fef3fcf8f3ffU, 0xed0408170bff28c1U, 0xece8190c0bde2d07U,
  0x3d012d8f0e9e4f7U, 0xe71803f50b170f0bU, 0xeb180a11ebf20bd6U, 0x6f000b3e00c11f0U,
  0x4bde5e61cfe00fcU, 0xdff10de7cee7ea09U, 0x7ee0b0d150cf9f1U, 0xaf7f4e7f9071bfbU,
  0xefff0914fe210c19U, 0xf3faf70b1402ed2aU, 0xd9130be0100dcb18U, 0x10e80ff50aedd7edU,
  0xeedef5f1fb0eeb07U, 0xf0f6df04daf2edf0U, 0x8ed1d150f12c107U, 0x9190df72614ff05U,
  0x1c05180ad22a3205U, 0xf119de220ef018ffU, 0xf0142f2006eef40dU, 0x282303d604fbdc0cU,
  0x2010fc03ea053f11U, 0xf7151ef2fa011701U, 0x16f5050800b9d1faU, 0x1605db01d6fb0811U,
  0xf7e7e307f5d2ed0dU, 0xe106101208ef1d12U, 0xdd60fd119fbe407U, 0xfaeb0507f5fa0cf1U,
  0xf50cf8f4e6e228ffU, 0xeff91dd9ec0a0004U, 0xc9e3faf4ee0b1cebU, 0xe3e3fb10eeffebU,
  0x10d5ec05d8ea06eeU, 0xe21711010ae7fef3U, 0xee0b03f6ed0506f7U, 0xf1e212db0511c509U,
  0xad2e3f70ff3e703U, 0xff050ff8db0a20feU, 0xfe01210209f1fb1dU, 0x101e111bedf408f3U,
  0x1fecd6fc1b00f8f4U, 0xff0f05f100ece91bU, 0xf600111ce411101fU, 0xebedf60dfd09cc06U,
  0xe1edf6f30b11f6ddU, 0xedfbcf0ffbcf0704U, 0x20042102e31afb26U, 0x3f82001140802f7U,
  0xe6050dfe020902faU, 0xf818e03101ccf307U, 0x22181efeffe7db25U, 0x29f6eacc3209f0eeU,
  0x1707e01dfdfd2127U, 0xee05f902ee0ffbf1U, 0xfe200b0e16d7d613U, 0xfb1dd705e70ffd19U,
  0x130efe1515f00001U, 0xfb1f17000439fd04U, 0xf72202edf7fb17dfU, 0x900fd2411fc193eU,
  0x20230f10f7f0fcf0U, 0x810161d1b16fadbU, 0xd6f3e906fdfeef03U, 0x1b2d01f31012c007U,
  0xf7de00d509fc0f08U, 0xdf113000ecf7060fU, 0x1e08140b1102010bU, 0x181300f9f007f600U,
  0xaecd5fd190cfd02U, 0xf8072617d3f81815U, 0xff0622fa100ae601U, 0xebe7feff0cf409fbU,
  0xfcfceae4e015e7U, 0xecffe41e04d91af7U, 0xdd803031df2f420U, 0xf4000ae108eeeff4U,
  0xe60b10e41925f0fdU, 0xe8e3dffdf1da0321U, 0x29cb3201f9110ae4U, 0xdf13f71bf4ee02cbU,
  0xff15fe2400ed30f4U, 0xf4fd10faf7e7e01aU, 0x253af104250bf9f8U, 0x21f01315e6f91dd3U,
  0x22fa034c27001804U, 0xfa16e6cefccc18faU, 0x144cfcf32ff7e7f5U, 0x4fcf53bd50031f2U,
  0xbe4dc200ed0110cU, 0xf617e8ee0af65c11U, 0xf1fbe52c1edfdee2U, 0x1714e4df020de02fU,
  0x35e10114eb082d18U, 0xdf64000f26ce1ddfU, 0xe60900e32503f3fbU, 0x150c1ce0e606d109U,
  0x22de060e2bc821f6U, 0xf01e05ecd4e53ef9U, 0x14110cf2f4f634caU, 0xecdd1dc9eee90df5U,
  0x8fc160a2d2d0506U, 0xfcd22b07f537fc2aU, 0xfce1fb201c01e2eaU, 0x1713e7f1f9f9df0cU,
  0xffff250cf7110226U, 0xffe0e313fdf511fcU, 0x6060510f915ff10U, 0xfaf00fd50cf200e4U,
  0xed16fd061e02d6efU, 0xf4e0de15e9040b26U, 0xf5021df8f632ffefU, 0xdcee0dedcad8e6c9U,
  0xe0dbfe07150ce0e4U, 0xedc9ecf4f3211313U, 0x70bf3e803041514U, 0x1fd82508dd02e9bcU,
  0xf30a27ecf11f0137U, 0x4ebdd300f010df9U, 0xf015f3ee5415f918U, 0x7904f6e32661c5cdU,
  0xcdec2ae4ed3afc7fU, 0xef6cffd16fc350fU, 0x8dee50a6bffc7f2U, 0x3435e8f925721f0bU,
  0xed1440f9e0120f5bU, 0xf710df0defde51ddU, 0xb19050240eb0e2aU, 0x170421ea26239edaU,
  0xc2fa05fa1e0902fbU, 0xfcece010e4d12ce5U, 0x9f6f6050015fcecU, 0xcd0803e411f2e9efU,
  0xf0f1f0c29290de5U, 0xea02181f1121db04U, 0x140000f1e9f61615U, 0x132829ea0f05f003U,
  0x600ede8fb140e02U, 0xe13f60ff925df13U, 0xfeeb1607eee4c0U, 0xf11f19001c0919f9U,
  0xfb0410df081328edU, 0xfc06effbf41df810U, 0xee080b2e0d1df400U, 0xc000be41208f20cU,
  0xeef2e4f801eaf7ebU, 0xdcf10813ff2ef414U, 0x140def181b02f639U, 0x21eff602fafe03edU,
  0xd1260df4fe1edb00U, 0xf9f1e3031ffef708U, 0x280909ec0a03030fU, 0x10efdf103ee0bc9U,
  0xfdfc3fe4d52b0604U, 0xad91c1b17f90dfdU, 0xf7e70826ebed0ef7U, 0x522e4cd09eb1cfcU,
  0xfbf00c09e414c321U, 0xd810e504ee0ae8f3U, 0x4e5ea24f50519f6U, 0x230bf8bb070be8dcU,
  0x2fffdffc32a3208U, 0xe8f112eec70bda0bU, 0xfe1df2e7021ee719U, 0xe91424e7322504d7U,
  0xffc33e0130b10f1U, 0xdf0408fcf7160c04U, 0x14f2eefcf8050504U, 0xc9f6001ddbd528feU,
  0xfe0df210f90124ecU, 0x1e8ef0d060b00feU, 0xe9f3e81b02eef401U, 0xb11f8070ceaf5f4U,
  0xff708c32e0c30d4U, 0x1b110ff80a03fa07U, 0x906ed0ef90d0d1aU, 0xa1507df01e50100U,
  0xffeeef405fe13ecU, 0x7f910252905f6U, 0x1e512f3e0110ff8U, 0xf20710f9def9f807U,
  0x809fa060ff70befU, 0xf0070608081cecf1U, 0xce9f40ed2ed0559U, 0xee24fbf111d1ee0cU,
  0xa0e0a1aeb08f1f9U, 0x21fdeef9f7f5df1bU, 0x23e716fade21fe36U, 0xea04e6ed1cfa2304U,
  0x1e0e0305e6fc2feaU, 0xf8dbfe16f20afffcU, 0xedd9fc02dfeb06f5U, 0xe31fe0e9e6fdfb12U,
  0x14e0f4d8eaf246e0U, 0x18d71501ce07fe10U, 0xdf91210ebd5e203U, 0xe7dd27eee7b610e0U,
  0xf4f7c7e80f2104e9U, 0x3f91ae50b1c0410U, 0x3f0fb0df0f90fe0U, 0xe5ed2ef909f207f0U,
  0xe812edf9021917ffU, 0xf5f5d9edf4fdf8f7U, 0xf306f9f806010ce1U, 0xa0df9eafa08f102U,
  0x1514fdf6fef619d9U, 0x60cfde221f0fd1bU, 0x6f3f1f304e2d5dcU, 0xa0003f0f90f0a08U,
  0xf901b6d71c230219U, 0x2f121c2fff6070aU, 0x10080af8e9d310f2U, 0xe8020af5faf216f3U,
  0xed8100ed0f12404U, 0xe9ee1a060cf8f7bfU, 0x20fedeebf6280734U, 0xf1f3fc02f6e510cdU,
  0x1e3a0c3ceff9f3deU, 0xf7e906f6152f1200U, 0xf8150a04eb020102U, 0xeaf3fd2408e6060bU,
  0x504fb31eef3efecU, 0xe4060103ef2603fbU, 0xe10adefbe3ec231eU, 0xefe9e53404082504U,
  0x80dd901ece50d20U, 0x221b0314e418f011U, 0xf3e91404fc17fcfbU, 0xf9dc033b0e022cf9U,
  0x141cdf101e07170dU, 0x11604e0f90be62aU, 0x8e7e8fde80ee8feU, 0xebeefef5f5f8deefU,
  0xf08d00e0ef633fcU, 0xf3f4f207f4e812e4U, 0xc47bee030c7c1cfU, 0x1dd7bdddfafe211fU,
  0xcc00c34439cdf8U, 0x21cedd24432d05fcU, 0x44dd3410908f5e5U, 0xe6d3343dea0efef2U,
  0xa311dac3bbfd200U, 0xe5a5241a3c01a402U, 0x105e3df33a09301eU, 0x36cbcf260711e2d2U,
  0x24b1bbf80cc812e6U, 0xdf2ed12f2115edf3U, 0xbd3503e813ade234U, 0x413121efacf220c0U,
  0x2eb1a82b2ff11604U, 0xf31b02db1b2e3a31U, 0xc726062405f93afaU, 0xfc8aefc1423b931U,
  0xdca3216d6bd1ea3U, 0xefbd00eed4d3fdbeU, 0x3af322e02626ed02U, 0x1dfa6e0e71956e2U,
  0x28e6f2f719c5c2f8U, 0x312815184321d30bU, 0xe32d29c702c306bfU, 0x3c2e027ccdb41c8U,
  0x2101b0e2dca8b9daU, 0x45d41d173ab32f33U, 0x4421de3fadb62db3U, 0xd6b0dbcb12ab2602U,
  0xca23e3e00eaf4aefU, 0xcdb92317ffb24fb7U, 0x48d1ebb5e2fcda59U, 0xc1dfbef0070a15dcU,
  0x24c5deba31c84028U, 0xdeee1ebedb2148ccU, 0x21563205002dec15U, 0x1b29c80f1a12ccf7U,
  0x2d90b2b24c6da5fU, 0xdcee24be20e9c400U, 0xcaefe20cb5bd27e9U, 0xd6371d3ae414d543U,
  0xabaf46f341ecfb45U, 0x28f0e7e9be04f719U, 0x350f23aacd1e08fcU, 0xfdd202b7c73935b8U,
  0xeb28c332ff1323daU, 0x1c46cdf0b1a117dbU, 0x4616bce0ee3ef3daU, 0xab22e31f50fdc37U,
  0x229d727d9f501d3U, 0x3026d5dc09ddbfebU, 0x16f92bd312c62ee5U, 0x39b7b622c12d4906U,
  0xdeb8ae99ec063d0cU, 0xfc43c0401cc90937U, 0xf92425ebfb041fbeU, 0xcbfabe05cb9d13b8U,
  0xbb08bd34cbdaafe1U, 0xd3bbbec1b0c24f0U, 0x3afdc0e3ab2fc417U, 0x33f35060bd61204U,
  0x1cc6fb15192646e3U, 0xeeb22611d00d2d3cU, 0xfdd94cb125fcc7e7U, 0x34ac40f4e42df4ccU,
  0xe14c839c412bcbaU, 0xd32de7b6f1d82e25U, 0xf6c5d7d5d52304b4U, 0xf3001d3f18e83dU,
  0xa82af1b42b0f00afU, 0xecfbd4d01dfcf325U, 0xc929100bc82f083fU, 0xb1251dea0cd11f0eU,
  0xa8dbd5da16ddec43U, 0x2d1ec4cfc0d0ade3U, 0xdc4bcff11308b1b7U, 0x39e6e6ccd003cb3eU,
  0x3a082223c440b305U, 0x440eba3d06fb2a25U, 0xcf5b6c43a2fe1ebU, 0xaae0f1de199db815U,
  0xe9a9b6be273dff21U, 0x22e4fbaca60e9ebfU, 0xfcced9ea0c1de804U, 0x1620b838fedccdfaU,
  0x2f3ed0e9081eb724U, 0x1bddde5c1a9d22dU, 0xee03e2f8dce7cfe9U, 0x5d329a9db120416U,
  0x4c7f0f14241bdc1U, 0xffd81de31dd0c5b9U, 0xec71510cac3cf55U, 0x2d7c1fcc64518b3U,
  0xf2370dbf372a1b31U, 0xac00e8bfce05fcc7U, 0xff0b1216b13c2d41U, 0xf1a360fcd422be7U,
  0x3ac8b4093aeae3b6U, 0x281bed25a9d0f52fU, 0xb5c54c0b15e2fb2cU, 0x1a616f73ae31829U,
  0x53bbac18bff9fa2aU, 0xcc03afdab7002811U, 0xd230b3de092ce32bU, 0xed1213d62e23f11eU,
  0xe1ca22cecb32c3c2U, 0xc7eac7dfb3d91a0eU, 0xc0da29f638dceb13U, 0xa6eef3e7efe6b12dU,
  0x8aadc2544ee3014U, 0x46bc073b1efbd5ceU, 0xd9cdc72ae81ef7d9U, 0x1b0d30c9a2c71eedU,
  0x3710bbb9c2d6b0c7U, 0x330f3dc4373b2236U, 0xe5f429eec0e6aec8U, 0xd7bdfeec3a9ac5beU,
  0x48fbf9ae371e320eU, 0xc44816e40756b3feU, 0xfd42b4f7042506e6U, 0xb8f3dc2a2de42202U,
  0xd8b5318f36422024U, 0x26ec4e2403e809b6U, 0x12fa3af3f1dee4f8U, 0x3eb309450e1f072fU,
  0x22cabddad32c3ed6U, 0x48154a30ded135d3U, 0xc9c938aee3391e05U, 0xf12befe2d5acb3dfU,
  0xfcce0bf2f37bc17U, 0x43e4c6372c163533U, 0x11fc3cf5f6cf25ceU, 0xeede17bc0c09dc23U,
  0xb80abc2df939b524U, 0x3ed41f1f41c7472bU, 0x110ce3f72fe30afeU, 0x292aecd8c7c6f7b0U,
  0x2cb2ed2f4338e52eU, 0x18df0fb5e4b6f837U, 0xc31d4023eae5272fU, 0x21131936160c3f24U,
  0xb62331e8d4d128b8U, 0x3bf0f8291ec9b1e8U, 0xe3d6cf3bb1c5f2ccU, 0xc033f2bfd8c6fdf3U,
  0xf808e6322ae1f8e0U, 0x222ad13737362b3fU, 0x39d10afc18cda40dU, 0xa20bcc1ba34323d5U,
  0xeb09c509193aced5U, 0xaffd4ec13acd0b37U, 0xc91127df29d2d3b7U, 0x46c607b2bcc9d8b9U,
  0x4112f031ad22ffcU, 0x180effd1d0a5161bU, 0xdeeb36f9281b22abU, 0x9e1fc2af08fcc017U,
  0xdaf33e3739d53212U, 0xeef61ae3d03c1924U, 0xab0db231f851a72aU, 0xd034372ce51bd8b2U,
  0xcbdef2d13b40c6cfU, 0x3bb3aeead5b02bf2U, 0x2d55d9fdbd3dd912U, 0x9ffcfc2f8f936ebU,
  0x1fc7b5a9d109d62dU, 0x4626ea2313cba7d1U, 0x362ea842201fec40U, 0xfefe18bee42333c9U,
  0x131a241cb0beed29U, 0x31fcb0cf10113441U, 0xdcf300fd17b51421U, 0xcef936f0fce0f51cU,
  0x2925003e32e9b3f1U, 0xf1ebf61db8f6b937U, 0xef080ffaf9fdc509U, 0xe5eae4ecadbdc335U,
  0x24cffc45e20ec4edU, 0xf6ec240cd3d0d441U, 0x2f083c12ffc6e8cfU, 0x30b50dab03e40adcU,
  0xff150dce22e94660U, 0x10b639f207d50aa8U, 0xfea04db04bc2916U, 0xe405c8dc38b11511U,
  0x1346aab234010f4aU, 0xfc30cd01043fd62bU, 0xdadecbdcd13c202dU, 0xccffd04bd63351c5U,
  0x1b2ac4d5f8dc2d4bU, 0xf7ac4326160fadaeU, 0xeed806d325fcb145U, 0xc1c200e3c61fcc20U,
  0x1de7b2163dbabad3U, 0xe7e2b90114e70a12U, 0x3ccb19dad0f61f44U, 0x18db1445fa07f2b4U,
  0xda0e3c3e19a02cfeU, 0xecf0e026acdf1cb3U, 0x143fc713dfebe82aU, 0xf943fbc73efff441U,
  0x8180400aaed42d8U, 0xb5fa1fe5d1ea32baU, 0x12d0fbe1dbd1ace3U, 0xaf262f2ec5fdc22cU,
  0x1bcfc023fcb431c3U, 0xdec7c3d4b6defbc0U, 0x2a4317220abfc8e7U, 0xd30030110217e42aU,
  0x401d0d1e1415b411U, 0x1028eded3afc4717U, 0x38c5e8b2be0fbeefU, 0xc2dde3af1ce7f705U,
  0x260d3c2dda15f7c6U, 0x3820e3b6adc7dae8U, 0xd62dca211bd9e3daU, 0x1d32b33ec1e61202U,
  0xf146ccfe2fe7bfc9U, 0x12c0f40416f2e532U, 0x3b3f133bcf01b3e2U, 0x1333b9c2b13106e9U,
  0xdf42b510b32df739U, 0xd8ba49eac5e5d32cU, 0xc226e6cbc1c713cdU, 0x32e3b1fc8ca3ff3U,
  0x1fc62b38b2b1f9f7U, 0x412df2c231f5d5e6U, 0xc0ccc6eb0035cde2U, 0xde2b0d40fa30d52fU,
  0xf4cde33403d4cfbdU, 0xeae1b92835d5f633U, 0x33ccefb9b9edf016U, 0xcd3baf1ca4d0c1adU,
  0xb71ebd0fbea6dc58U, 0xcdded2dd3bf4ad1eU, 0x1c0246f4b8182bd1U, 0xe222c942dfd044ccU,
  0x5c1d1e3e4b62f1fU, 0xc9e0de103fb5cfe1U, 0xc8392e373d0eb40aU, 0x3ba0325343001f9U,
  0xb21fca20c4c1f31cU, 0xdffb1a1fcbe025b0U, 0x9ff82bc904bad8eaU, 0xe3629abc33f0432U,
  0xb8331eed30c3d1e0U, 0xf839c2cdf029c9eeU, 0xf7fb2cc218bfcbd4U, 0xaeb205d0f8b5e514U,
  0x81c6e115cb2becf9U, 0x4803f9af074e0803U, 0xbcddf6010136bdf4U, 0x21a6f0de15461223U,
  0xa12fcfb7f426b7acU, 0x3134d24529e633deU, 0x323b1d9b35f7a2acU, 0x16af04340b01a58eU,
  0x342b1ae0c54defabU, 0x44e29005db0af9ddU, 0xd2e1d500ec068f4eU, 0xa34ed7fabd2eb586U,
  0xf1c3e789523ad498U, 0x5be49949e5a5350U, 0xc2fce105b313cfcaU, 0xf43133e4f2d4ba9fU,
  0xc71134100027bdd6U, 0xf6af29464b62edbfU, 0x22514e1d942a9a40U, 0x35b9df46903dd5efU,
  0xb9414a91e39f5d3dU, 0x3d2dbf432317c30dU, 0xa3d8499450e6052bU, 0x55f1b0bff9af201bU,
  0xe53205aee5404ef8U, 0xa6ea19ff51e09f31U, 0xed12c2bab534b901U, 0x3433b52b9442a121U,
  0x48f8373eda99fda2U, 0x9c02d494fcd648d2U, 0x361098c73b8f382fU, 0xba07b49c3d11f926U,
  0x20e639491f352c14U, 0xa9da9f3e61aa90aU, 0x45e1b3253bedf08fU, 0x42b0da28ee1157e6U,
  0xc39ee3fc31e23cfU, 0x513249d1aad9a5e9U, 0xb3cac8bcb4bddfabU, 0xe848defd1430e3b1U,
  0xe040baa43e0f907U, 0x334a538b37deea9bU, 0x319d88a435411e0dU, 0xcb8ff1702510ab6U,
  0x334ef7a213a1e5a8U, 0xccfca8c235ef519dU, 0xb1dcfe8c345d2acbU, 0x46f7a18c0edf2af5U,
  0x3efb54d8e92df9b5U, 0x4db52ed8bb1df8feU, 0xdd27efebc3054a30U, 0x15be263ac89803d1U,
  0x2447cf5b20f852c0U, 0x4995871d20afc609U, 0xc53ce9ad3e4f25f8U, 0xb544589a093902b4U,
  0xe4f4b6f8d4dd4e9fU, 0xb01af563de4c4e2U, 0x192ab2de01db96e0U, 0xc400050cce472b51U,
  0xd797d6ebbcaaf607U, 0xf15336f23233ebcaU, 0xed9a943de199eb1U, 0x6388923e1413cfd4U,
  0xc16a2b11398f6afU, 0xd8b0e4abdf31f3a1U, 0xbbe31994e62ca32cU, 0xdfd82ffad91a9d06U,
  0x1a99440ff81731fdU, 0x2747a3222481450bU, 0xe3ce1a05c09ae1d4U, 0xfcdc4b4ec08daabdU,
  0x41f6a4f82d2009d9U, 0x16ea28e418e1370dU, 0x46f2a9cade5ce721U, 0x2450c2939220f7d2U,
  0x15438af10811c4d3U, 0xd745231395f9f6c2U, 0x32e0c7be49d7d114U, 0xb4dd02e997ad9542U,
  0x5be917f5e14ce0dcU, 0x1ae2ef974f4d1d03U, 0x11002e4930b5abc6U, 0x952d4d102f96fc92U,
  0x45e7fd172609d39fU, 0x8aa9dbe2e9145100U, 0x2db400ea3ef3f1a2U, 0x22f7c6a7e812c217U,
  0x2734e7d003c86448U, 0xf2e8edc1c6d8ed9aU, 0x461bba00a1a3a93eU, 0x29968efde7d55216U,
  0xf32dfabe1b0db39cU, 0x3c53a8adb43f3642U, 0xc0f2e6f226ab2226U, 0xcc34b5ba9dd4b694U,
  0x9ff2a4a9cbcab3b9U, 0xbfe0fe3ad904f117U, 0xefdb4512e831b62aU, 0xe3c4e236e88d8d46U,
  0xeb091db2df4d1d8eU, 0xec37e69f4f4ef7eaU, 0x1f3e2a31462bbaa9U, 0x2421c6091307f702U,
  0xe0417d98cd9558eU, 0x4f4640fff810a5cbU, 0xcb4e4cd70837f38fU, 0xb9eb1190a2cc4a02U,
  0x37a20b2f434491a7U, 0x3bd5ddb3f3a7dfa8U, 0x87ebfdc2cddb239dU, 0x2bb1bc41ddf3513bU,
  0x3115161344e0b660U, 0xd999461a0eeef415U, 0x1f8e134718ba25f6U, 0xe19cbaaef41f0ba4U,
  0x9706b50c0ffd06e9U, 0x10d1b6d9af4a3609U, 0xb4f49c54dae9a4e5U, 0xf797acfef2ac36b6U,
  0x2539bdb00a0ad19dU, 0x281ea59f89e315baU, 0x98e7ba12cf22a8e1U, 0xec3c38faacdfbe3aU,
  0xc311c108cd4b54aaU, 0xb749a7d58bd941dcU, 0xb223172903be98f5U, 0x234d4ab7f0d8c631U,
  0xd0be27c8a6d726dbU, 0xf0ecd8b1de2c4016U, 0x994ef3ad8ef6385eU, 0x5eb50cf83107902cU,
  0x59a3b02b3fa3b2edU, 0xff22a7cd1c1fff3cU, 0xc530161fae0acf1bU, 0xa44fa32135b44098U,
  0xb18e1efc1ca7b310U, 0x2ad0932cc1c67c4U, 0xbd21a6cc4c17cfe1U, 0xe53d1b3cdac7dde3U,
  0x9ad420641d4c4ddU, 0xf015fc2b3e280753U, 0x12a60524d6f6d53eU, 0x5b73e4b24fb0a3cU,
  0x1dabc5ac110460faU, 0xa3dc363eb8bb264aU, 0xf12f6f8b80d98b3U, 0x3b48bf4a44b83236U,
  0xda8c092b0d1bf9afU, 0xc310332c39bcb838U, 0xdad394b58c2cdce5U, 0x3c55aec509a52029U,
  0xff3dfce925f86589U, 0xac0cbf8dc4fba233U, 0xdbd630c8024695ccU, 0xd293e1b731bc9dd0U,
  0xc031adf1a72d5720U, 0x434900fedc06ae05U, 0xf4ac4ff9b008d3a2U, 0x2ccd2d7fbe357ccU,
  0xa0f29a132faaefabU, 0x30e8d909bd09efc8U, 0xa0e2dede909ed3bdU, 0x27ee00e924efe6beU,
  0xb5df9d0cda10b744U, 0xf80d030c41de0992U, 0x67993b9c95d2e5a6U, 0x114acea69bcdb0a9U,
  0xa5cc49c9ea95e547U, 0xf2dc7d0b550b038U, 0x36048eb4c6165129U, 0x1032c9b8ae380713U,
  0x529a1504efd6b503U, 0x3ed1553e46f4488dU, 0xb8af1300f42aa1d0U, 0xb8a98f288da70df4U,
  0x2b345d544d9c7c1U, 0x3bc4048dd9ae0ac9U, 0x14e3b5e99cbc4c54U, 0xc5d218b80fea00b2U,
  0xabef2d1940d5a80dU, 0xfd351001eb552ddeU, 0x171afef3ecd08b37U, 0x388de4f0d296fd07U,
  0x23fba93d238de461U, 0xf9fc3223495b9c9cU, 0xa8d9f8becc61c126U, 0x5acca451fa6a95bbU,
  0xda1841dcd9451c97U, 0x1aeae391f2221ba1U, 0x164ff0f33c55160fU, 0x1c620129b211713U,
  0x3439fda52e3c2fc6U, 0xe1b3deecca27aa2dU, 0xd73f03400c8f3ae6U, 0x561692f104e300ffU,
  0x41c448d6340aed03U, 0xc4e62c9fe0254e00U, 0xf4cd29e6e9fde12eU, 0xc990b4d10d97afc5U,
  0xe2c3cfab3faf2f08U, 0xcc0fa0a9061a0793U, 0xa3adf12c1ebdcbadU, 0xd63dc12e1b302514U,
  0xc9e3ded5fc22cff8U, 0x2de00d50422a433eU, 0xa7dafc4dd1aa3320U, 0xab8a0daba6aa3a42U,
  0xeb9d2d3df2e40c34U, 0x2ebb081d4835fa17U, 0xbade06db1f1d951eU, 0xf220f3024ef0cf88U,
  0xbcaf445bfe180d0bU, 0xc4bcafda3b951b02U, 0x414ae508af3004acU, 0x3f29af3ad8e6b6f5U,
  0x9db75493d499c525U, 0xc5f25ca517462c4fU, 0x36ac334240e80bf6U, 0x4e1816d8dfac4cd2U,
  0xc3b4f235cdf0d1d1U, 0x23352ec83db9d338U, 0x1beb2648ffaea1a2U, 0x4d49e6394a2fc82fU,
  0x20f3f1299c001f0cU, 0xcfe09de6c3de3aa7U, 0xb415d8da9e0d8920U, 0x1ab0ccbad088144eU,
  0x3027fb5ce92d31bcU, 0x2c26d71a3503a42dU, 0xd219e1bad653a2c7U, 0xa6f634a41cdcf8c6U,
  0x1c49c4f5bb11ce1fU, 0xc8e80b3b01102fd1U, 0x19c5b83bd8cf45e4U, 0x16ed2cb22231c940U,
  0xb6ffe4c38b1129b4U, 0x13450df0c051ef40U, 0xd24f0c27b6ac4001U, 0x34975131cdd75ac5U,
  0x1e35a4b3ded78f23U, 0x22bfcbb50c4c1facU, 0xd109d00fbb96cbf7U, 0xa62a942505009722U,
  0x3da14cc5b5a9df9eU, 0xade5ecdcc60b37a1U, 0x2e94eed88f043db7U, 0xc1e653d21e484c21U,
  0x1c2cca0154ae312bU, 0x4d203904c0c754f2U, 0x8afaf194a517b558U, 0xd3d92c08ff654c5U,
  0x2adf28d34a04c7efU, 0xc382c9f8eca50beU, 0xb2e9b49eefe6ecbcU, 0xd7a8b23affbdd1c1U,
  0x23498e96ae5145U, 0xbef6a830a5d4b0f8U, 0x32bc52dde38bd756U, 0xa4a0b83542d69d44U,
  0x2443184d30d61310U, 0x42b3f94d26de12ddU, 0xe9bfd4c6d2392231U, 0xf4b205dd2700f91dU,
  0xb8daf7f135312698U, 0xe1100af6caba06efU, 0xbeece6b12138efefU, 0xa293a51121745e6U,
  0xdb12e820d6d7229cU, 0xb7f6eabaf4010acdU, 0xc9d2f6ec0d0d16d5U, 0xc4dab5fc31b213a6U,
  0xdfd3fc41eed93037U, 0xf1e3b505232cd5b7U, 0xe401c219fab12040U, 0x22afdd26a02828e5U,
  0x23d3a9d1b7cfbf94U, 0x2802e51cde05d133U, 0xc8ecd8f028dd9524U, 0xbdfed417f4aa35d2U,
  0x123f2e33f9115231U, 0xfec118f5b90ceba3U, 0x35daf4c8ded5da00U, 0x1de4e60731d61121U,
  0xc704c63a2e302c89U, 0xfeefaafcf5d6e4c2U, 0xb3b3badbaf04eebcU, 0xcb0dc5cbd6d439a3U,
  0xe7b81610c702b027U, 0xacedb42de5c103d2U, 0x104cadc62afc1dcdU, 0xbccdf140b80d2638U,
  0xdf25e7aa1724f7c2U, 0x6b733d642dfd5b8U, 0xab14f61f0efad0b7U, 0xd1050a160b1a381cU,
  0xcf1d18d8b2d9ea0dU, 0x2b0834ae0ef8f624U, 0x36ccf3d2a2ebc6ecU, 0x1b2f3b0c8e02bd2U,
  0xd00d080f25e9f3c2U, 0x5209b43db4e08a12U, 0xecd133a2c9171316U, 0xfa2aabe2f70df7dbU,
  0x24f0cdeb50e94acdU, 0x58d041a6c7fee143U, 0xdef0b4f59b03c522U, 0xdc2f282748ef93cbU,
  0xf8f5ff10f00b35a5U, 0xde22ec27174adf19U, 0x33e4d0c5cd2ccffeU, 0xf1928e92d112f37U,
  0xaafc2b4e43fb09dcU, 0xc1ccbc2cc838f8c2U, 0xf12bf9c223a2f7aeU, 0xe235341be4f61403U,
  0x4cf1dc02fae5dcfcU, 0xe60824c3a5f234b8U, 0xfeb7cdd6ae4c0fb4U, 0xb6d3afdbd7ba00f0U,
  0x8ca1043251adfb0U, 0xf6c32823fb442f06U, 0x3ccef2bce90637b3U, 0xd2041038badd4909U,
  0x3e14e8e324ef0108U, 0x1ecfe91db90adf0cU, 0xe613f3ddcca6b2ebU, 0x3e0bf7d325b25e0bU,
  0x26c8b546bdb7ccb4U, 0xbf2fb98f141acccfU, 0xe2b33cc8b7d8d798U, 0x3b2cf8f3e2ade90fU,
  0x45cad2fe1b151725U, 0x4b573fe1fe1ebedfU, 0xaf1aeac0e981b157U, 0xe1ef06393d09f139U,
  0xe6c5eeb9c81718beU, 0xec13feaf39a60c1cU, 0xdd10f0defabae148U, 0xc070202af340b31U,
  0xe5b336d62e25d62fU, 0xe70702fc093167e4U, 0x2df2380d16b831b7U, 0x2cdeed15a824e611U,
  0xff2e1dfbcceded2aU, 0x60708a82432f6b0U, 0x2943b4cfe721e0f8U, 0xa6ce02b53ccacc25U,
  0xa2b91005e636b2eeU, 0x3802444726eefa26U, 0xe0c0fb44a3ec4dbU, 0x15eae7d0c336be02U,
  0xd5ca4fe1c1f1ecU, 0xc99103e2f0ee13d4U, 0xf6bfe01c0127d7fcU, 0xf7eff7f9f8effbb5U,
  0xf60ce8de9deed0c7U, 0x182bf933d32832ddU, 0xaf0fbae030fecc9U, 0x3532e7d411bbc0c6U,
  0xf1abe217ffb1c518U, 0xe5c61c0736b322f3U, 0xf2018380012de08U, 0xcbfbd8cee0f92f3dU,
  0x8fcc3f013ebc04e5U, 0x3afbeb18f32ec1aaU, 0xdce9f435e69c1906U, 0xbbd1eebb03bad1cbU,
  0x27badda1c3ebed34U, 0xd0b5d4df24b5e837U, 0xe6a3b5c0e301ef3bU, 0xb9191438f6dcf4bcU,
  0x4c5dbc4c6f04ba7U, 0x10d516ec19faa924U, 0x1b48c2defc3cfb0fU, 0xd3059bfa0d3be1f1U,
  0xcd33f51c3827f344U, 0xc2aee9ee0012d9c6U, 0xe0cdfb2af918c9e0U, 0xf0c1c6e01b3b56bbU,
  0x8cade0dcb61ac3dbU, 0xeeb6aa30fd4fe5eaU, 0xafbc1d2bdec0a13fU, 0x12d61e073fb2e8ecU,
  0xf401ee15ae3043f7U, 0xdf28b0e42dd4d1adU, 0x4330d213c30c0ad7U, 0x23b4dcb83a3ddfcaU,
  0xaaeef034d5af2b19U, 0xcad5db090b16aa00U, 0xb91920b0f0912ac9U, 0x36dfe4f5eee9fab4U,
  0xd109ddcad7d617a5U, 0x3be918fe2c1fb32eU, 0x230ad1fdc21bb5eeU, 0x1afab7e31d9b9820U,
  0x3e03b7def4a906b6U, 0xc3013cda35e0ebc0U, 0xcfe0bce5d8c6e5daU, 0xa404f02de1c61c1eU,
  0xf0d0bac2e9d72620U, 0x3f09b6bbe1eb9d40U, 0xc9c23f17f3e90c16U, 0x21b0434c2a7ee47U,
  0x5300199f540c319U, 0x26e8ace6cbdd1c41U, 0xdfe1d7f537b5ae39U, 0xf8c1a61be1221833U,
  0xffd01d213c2cd1b5U, 0xbfaf1cdb519fcde5U, 0xbfad04bdab92b34bU, 0xa02dfa2df3c407f2U,
  0xf70be708dfd7e34aU, 0xebc821b7dd25c028U, 0xc5e7d3132026f5e7U, 0xc6090721f58e1e42U,
  0xe02cba0cb8dd0dcaU, 0xd83cef13279702f4U, 0x2a0dc8fc40fdbf3fU, 0xf1b9e3ed4800e6d3U,
  0xee06a22cd8ccf2b9U, 0xc229fbad23e9b501U, 0xfa26d502c31d19b2U, 0xb0c0b80bb212f201U,
  0xafec37e4c1e624daU, 0x35cdd0dfb611050eU, 0x93d02c2c50c83d2dU, 0xd73a33f0f9d30814U,
  0x2604e211c32ade10U, 0xc825e5e5fca5f5e8U, 0xd69e3a9ebeab42f5U, 0xc1625b1b19aedb2U,
  0xb0f7df23ac1506e7U, 0xbf1be41ad3260db6U, 0x94dc22da4094e5beU, 0xfff6ee2715bab20eU,
  0xdee5d2dcdfe23015U, 0xeed72eff029fbd05U, 0x4d282303beeadec1U, 0xde2f16fb40150bcfU,
  0x99be2dc3ab023340U, 0xf705c2cb3b460af6U, 0xe134f0c537f3def0U, 0x2cc0ff45411bf8b6U,
  0x4f0aa23fbc8d7ebU, 0xbeebc9b5f9d3afd4U, 0xada17d4bd29ded8U, 0x52421ddcbde9a37U,
  0x37ece4df39fb513eU, 0x9f5d2072027a0b8U, 0xb0b71c20fac4f091U, 0xa2e73e174605ba21U,
  0xc22dda373522dd39U, 0x2c45bbcd479b2c48U, 0xe9e5adecdf050dfbU, 0xa8c2ac42e1cf5635U,
  0xb707271cc819e4e8U, 0x51aae6a8ca3bffecU, 0x8c29fb1b2bf32938U, 0xd9c40e07d1e9eaf4U,
  0xc119e4a705093a14U, 0x3803e522e6ebc9d1U, 0x2ea3164d422ee6d3U, 0xb6f5cdbdfbb2a0dcU,
  0xdacbdf02affafa22U, 0x19003db042dd4800U, 0xcfb2ebe82d33fe9cU, 0x22e71ecfe642ddfdU,
  0x3f40c82bdfbffa10U, 0x1003db40d836f023U, 0xa83ec5272840fdffU, 0x1d043ed9b1d6cbb2U,
  0xabe7243001c3451cU, 0xf3b31dcb1fab5ceU, 0x9fcdd1ede1af3e57U, 0xacf5025feeffcbdU,
  0xfafc2b042930c3e2U, 0x41a6323aeebef334U, 0xbcf52247c5d33024U, 0xc9f40cd6340b31f8U,
  0xd9e50a1918c1d013U, 0x2f212c3931390dc0U, 0xedeb39e22aad440fU, 0xef514dbbadd5cdf3U,
  0xf0e0cacd361311b4U, 0xf004d9c5de9fecc8U, 0x11a12317141fa3f1U, 0x291414fbca0355dfU,
  0xe60a1aa60830b6e1U, 0xd728e937ba1cf6c4U, 0xe7cee8a2ad0b042eU, 0xc2dcbdfa00231cddU,
  0x21c6ebedc346dfb7U, 0xc4d7ccd2f2fc2ebfU, 0xd0ac15ef30eb1dbeU, 0xf214ede0c8e9ab05U,
  0xb09900bde90fb3d9U, 0x3daa37ba04e4620aU, 0xb837e02c10f72894U, 0x89bd2ef3fb014d1dU,
  0x453f22e1360f41faU, 0x1d00bd3848ead3e5U, 0x1a122b43c5b812ccU, 0xf235013f29b40ce5U,
  0xf8db47b323d8c12fU, 0x451742fdd803b530U, 0xfabbdce90fcde4bcU, 0xbfbf23153be021c0U,
  0xbecb28020eeffe0cU, 0x1dd841fae7e6b9U, 0x1d1bfbbf1d200707U, 0xf5dcc84ffce9eab0U,
  0xfa3adf40bd16fb14U, 0xcc41c9ef27f31e0aU, 0x9eec08f5fd1c3ec4U, 0xe22d24ffb1f2ac0U,
  0xce2bd228d4fee806U, 0xe7c4cd1a2ad0e0e2U, 0xce3408f9fcdaeee3U, 0x150f06fd0311bbfdU,
  0x37f90b0828112e02U, 0xe91532eaca2301f8U, 0xade40ace2af8f2ddU, 0x8f5f2c30df0d7f0U,
  0x27e6fcdbdb0a14f8U, 0x53118dee9bde7e1U, 0xe3ff2dfde2f0eebdU, 0x1301fddde5ebd504U,
  0x6e6ebf3f7ff2202U, 0x2ed0394f403e605U, 0x9ebffcc08e707d0U, 0xf709df4dfbff21f1U,
  0x16f60fffe502fb0bU, 0x2413e30c0cdee3e9U, 0x5c91adcf90efff7U, 0xf50ffa04280026d9U,
  0x16ff05e5f13b39fdU, 0x706e0d7e4c11216U, 0xfce3e6e701dfc7abU, 0x721aa40150f20feU,
  0xbfd9efd6d41bd204U, 0xf2fbebc4f7f0f600U, 0xd7bffad342dfedf1U, 0x912d6f80c1afa0fU,
  0xb5cad6e39f101b18U, 0x1c6d29b34b51701U, 0xfa3e071afc061afaU, 0x1132211b3603d6dcU,
  0xea1d37f41616f70fU, 0x14e9002255f9fd19U, 0xea04e5e4d802f923U, 0xecd0de11f4ee9fc6U,
  0x3f80ad8ec0deefaU, 0xdd130be6dc0db7e8U, 0xbfafdfcafed8e4deU, 0xf6d4ebe50325e9cfU,
  0xd1ca19caec1236e7U, 0x1e071bd126e4effcU, 0xfbef08fff4d7e3e4U, 0xafe12df0f2c1e05U,
  0x370eee30deff001cU, 0x1c23e7e64ad506f6U, 0xfce902082ad8f830U, 0xb24dd1e0f2a50f9U,
  0xee08125411e8ff0bU, 0xfe0f02f430cb2eaaU, 0x11f3fb2d0b162025U, 0x1c1605da38212f1bU,
  0x1d191518ebcf221bU, 0xf71305d62d3b28f0U, 0x215f23014eacce5U, 0x18f2e61431fa1119U,
  0x11f71109e3d3ec23U, 0x13e81bce30f705f3U, 0xec0e02fdedcafa44U, 0x1be8dee7eed602U,
  0xbf3c3aad50014f1U, 0x8fc14c320d7efefU, 0xe31afb15fa0e0ee9U, 0xe80a05d6eadca504U,
  0xcde4e4cbfb2226f4U, 0xfeedf02014eb0a14U, 0xcce112c5fc01d0f0U, 0xe0fbdd18fedefe12U,
  0xf422f7efeacfe3feU, 0xfae1e11d0ede14e7U, 0xfaf415eae00df735U, 0xde150c1cf701fe08U,
  0xe71bfee2d1043eefU, 0x2d1605042c8b0d21U, 0x3b130dfeca104425U, 0xf1f01ef5160afaeaU,
  0x242e29de2f3c2117U, 0x1f11f911210903f4U, 0x5ee30fecb2d171fU, 0xe80cf0cf27dbe6deU,
  0x2414ea0a1104ef03U, 0xedfc35b1f9eea8c9U, 0xf2f02922cc1860b9U, 0xe7cef9042dd61bebU,
  0x1be2dcbff9f31cf5U, 0x23ee4f09f90fc0a1U, 0xf8034641d4110335U, 0xf4bb0bfbf3defffdU,
  0xf51ef1b8ef0bf903U, 0xaec0b3a1a10d3e4U, 0xeef709e3ebf337fbU, 0xe0fbedffd9ff0419U,
  0x26dfdff123df0805U, 0xf071bfec5cc11f7U, 0x182c08fa0301322cU, 0xde090eea07ecd50fU,
  0xe3faeaea00011bebU, 0x1422d9d501f70decU, 0xfb11edefc5fa1afbU, 0x243fe1adff2d5f8U,
  0x1703fb1cefddd0deU, 0xe3df815f50014e0U, 0x18effff6ea0efdfcU, 0x150f0109e9ef12eeU,
  0xd209f30924041be3U, 0x21fffe0416120444U, 0x2f0d0bf0091043faU, 0xefad46fccde516b1U,
  0xaacee93b391afde5U, 0x12a1f4ebf3ff4740U, 0xf2f81fc4073eeaf6U, 0xb3ba2e3ebffb63dbU,
  0xffe8ec4524c4fd0aU, 0x4eff51822f12be7U, 0xbbf301252a46f41eU, 0xbcc7d3ddf017f7c7U,
  0xc6cef33108e505f9U, 0x1ee9e7031fb93be5U, 0xf8ebf9d6f517e2e4U, 0x9cef01bfda0730b4U,
  0xfc2634280add24f1U, 0xea161621160cdffcU, 0x1aa12fcde9eb49ebU, 0xf1f8eb07fd07cfc8U,
  0x25f70301df004e20U, 0x221f1e13e5b3e20bU, 0xe1d17eb11f04e10U, 0x5d918fce5190129U,
  0x3c2ff6080620f701U, 0xbebfbe2d12319feU, 0x23eae41d03fc1af0U, 0xd8fb0a0ef8f83f04U,
  0xd9ef1cc119df09efU, 0xfafff10618d446f3U, 0xc5d7f0f8fa20f3e5U, 0x2e1a05db23f72738U,
  0x11c611b8ff1dfc0eU, 0x25fe27f431fadf16U, 0xe422fa080b4416bbU, 0x1320f90cdfea192cU,
  0xe7fc00e8054a1640U, 0x4d520ed240f1551U, 0xf3dcf220530df8ccU, 0x3e0e1c131244a701U,
  0xe8fd4914e347027cU, 0xfcd5d7fb6a1a1e1aU, 0xf4fb042f542ebad8U, 0x3815cfa0cd544116U,
  0xb414322af008d27fU, 0x1ec9cc15f0fa2f13U, 0x8f0f3eb510aebf5U, 0x332efeddc45315dU,
  0x16d93f41c7071a4cU, 0x20cade1627b72bdcU, 0xdab2bc5dcc81320U, 0xd2eee11ebd41d09U,
  0xebf0ea0ff4d53f16U, 0x17f402d9fcf5ac07U, 0x1ef801e3eaf92bf7U, 0xfce8fccef9feeafeU,
  0xfdcad217fff818f1U, 0xfdf00ef930eef1fcU, 0xd7371508ecf5fce1U, 0xec1504ed0ce8f8ecU,
  0x90720ff21f80509U, 0x13f4c9fdf7fa200bU, 0xf4f9f318e9edf454U, 0xe6281d090bdc2338U,
  0xfff003c80ad70406U, 0xf6f91d051d070310U, 0xdd1e0a071027fcaaU, 0xf90721ecea11ea1fU,
  0xecfef4cff332c8cfU, 0xffd701ff1ee60726U, 0xf4f9f805eaf5e915U, 0x10eb15fafbe8aaf6U,
  0xfe121f5f4faf801U, 0xee011ddf2c1d1817U, 0xed2901e6b5e303c9U, 0x46f70bade5dad914U,
  0x42e7ebebdb09f9f8U, 0xf42933fefd23e5e8U, 0xfac1da1dd40c0503U, 0xfb3dd9ae091ead21U,
  0x232d092b04f6fbc2U, 0xfb1523ed201ee032U, 0x1b0bf7ead8fbdbe1U, 0xebf4f504eb10f40eU,
  0x2a0cdf1a1dca0beaU, 0x1f100c0df4e7c91bU, 0xe5e4e6e8ece0ed24U, 0x1f0fe5cefe1afa1aU,
